{
  "version": "1.0",
  "truncation": null,
  "padding": null,
  "added_tokens": [
    {
      "id": 0,
      "content": "[PAD]",
      "single_word": false,
      "lstrip": false,
      "rstrip": false,
      "normalized": false,
      "special": true
    },
    {
      "id": 1,
      "content": "[UNK]",
      "single_word": false,
      "lstrip": false,
      "rstrip": false,
      "normalized": false,
      "special": true
    },
    {
      "id": 2,
      "content": "[BOS]",
      "single_word": false,
      "lstrip": false,
      "rstrip": false,
      "normalized": false,
      "special": true
    },
    {
      "id": 3,
      "content": "[EOS]",
      "single_word": false,
      "lstrip": false,
      "rstrip": false,
      "normalized": false,
      "special": true
    },
    {
      "id": 4,
      "content": "[MASK]",
      "single_word": false,
      "lstrip": false,
      "rstrip": false,
      "normalized": false,
      "special": true
    }
  ],
  "normalizer": null,
  "pre_tokenizer": {
    "type": "Sequence",
    "pretokenizers": [
      {
        "type": "WhitespaceSplit"
      },
      {
        "type": "Split",
        "pattern": {
          "Regex": "\\\\[a-zA-Z]+"
        },
        "behavior": "Isolated",
        "invert": false
      }
    ]
  },
  "post_processor": null,
  "decoder": null,
  "model": {
    "type": "BPE",
    "dropout": null,
    "unk_token": "[UNK]",
    "continuing_subword_prefix": null,
    "end_of_word_suffix": null,
    "fuse_unk": false,
    "byte_fallback": false,
    "ignore_merges": false,
    "vocab": {
      "[PAD]": 0,
      "[UNK]": 1,
      "[BOS]": 2,
      "[EOS]": 3,
      "[MASK]": 4,
      "!": 5,
      "#": 6,
      "$": 7,
      "%": 8,
      "&": 9,
      "'": 10,
      "(": 11,
      ")": 12,
      "*": 13,
      "+": 14,
      ",": 15,
      "-": 16,
      ".": 17,
      "/": 18,
      "0": 19,
      "1": 20,
      "2": 21,
      "3": 22,
      "4": 23,
      "5": 24,
      "6": 25,
      "7": 26,
      "8": 27,
      "9": 28,
      ":": 29,
      ";": 30,
      "<": 31,
      "=": 32,
      ">": 33,
      "?": 34,
      "A": 35,
      "B": 36,
      "C": 37,
      "D": 38,
      "E": 39,
      "F": 40,
      "G": 41,
      "H": 42,
      "I": 43,
      "J": 44,
      "K": 45,
      "L": 46,
      "M": 47,
      "N": 48,
      "O": 49,
      "P": 50,
      "Q": 51,
      "R": 52,
      "S": 53,
      "T": 54,
      "U": 55,
      "V": 56,
      "W": 57,
      "X": 58,
      "Y": 59,
      "Z": 60,
      "[": 61,
      "\\": 62,
      "]": 63,
      "^": 64,
      "_": 65,
      "`": 66,
      "a": 67,
      "b": 68,
      "c": 69,
      "d": 70,
      "e": 71,
      "f": 72,
      "g": 73,
      "h": 74,
      "i": 75,
      "j": 76,
      "k": 77,
      "l": 78,
      "m": 79,
      "n": 80,
      "o": 81,
      "p": 82,
      "q": 83,
      "r": 84,
      "s": 85,
      "t": 86,
      "u": 87,
      "v": 88,
      "w": 89,
      "x": 90,
      "y": 91,
      "z": 92,
      "{": 93,
      "|": 94,
      "}": 95,
      "~": 96,
      "¢": 97,
      "°": 98,
      "Å": 99,
      "é": 100,
      "ü": 101,
      "ā": 102,
      "ć": 103,
      "č": 104,
      "ṇ": 105,
      "–": 106,
      "‘": 107,
      "’": 108,
      "“": 109,
      "”": 110,
      "‰": 111,
      "_{": 112,
      "}}": 113,
      "^{": 114,
      "ra": 115,
      "fra": 116,
      "frac": 117,
      "\\frac": 118,
      "ma": 119,
      "}{": 120,
      "mat": 121,
      "2}": 122,
      "in": 123,
      "math": 124,
      "\\math": 125,
      "\\t": 126,
      "\\s": 127,
      "1}": 128,
      "\\p": 129,
      "al": 130,
      "ta": 131,
      "rt": 132,
      "ot": 133,
      "\\b": 134,
      "\\mathb": 135,
      "_{i": 136,
      "\\c": 137,
      "^{2}": 138,
      "dot": 139,
      "\\l": 140,
      "me": 141,
      "\\in": 142,
      "}(": 143,
      "})": 144,
      "{1": 145,
      "\\o": 146,
      "}}{": 147,
      "\\mathbf": 148,
      "_{1}": 149,
      "eta": 150,
      "ig": 151,
      "ha": 152,
      "ex": 153,
      "\\,": 154,
      "}=": 155,
      "}^{": 156,
      "am": 157,
      "ext": 158,
      "\\text": 159,
      "_{n": 160,
      "\\cdot": 161,
      "00": 162,
      "x}": 163,
      "2}}": 164,
      "(x": 165,
      "\\sq": 166,
      "\\sqrt": 167,
      "_{0": 168,
      "ar": 169,
      "art": 170,
      "_{2}": 171,
      "rm": 172,
      "ial": 173,
      "artial": 174,
      "\\partial": 175,
      ")=": 176,
      "\\e": 177,
      "{1}{": 178,
      "le": 179,
      "\\su": 180,
      "\\m": 181,
      "\\v": 182,
      "hi": 183,
      "ri": 184,
      "pha": 185,
      "\\al": 186,
      "\\mathrm": 187,
      "\\alpha": 188,
      "er": 189,
      "matri": 190,
      "si": 191,
      "\\\\": 192,
      "ty": 193,
      "\\sum": 194,
      "_{i}": 195,
      "nd": 196,
      "na": 197,
      "or": 198,
      "ng": 199,
      "\\pi": 200,
      "-1": 201,
      "el": 202,
      "da": 203,
      "heta": 204,
      "\\dot": 205,
      "eg": 206,
      "_{k": 207,
      "elta": 208,
      "{d": 209,
      "\\theta": 210,
      "\\mu": 211,
      "ga": 212,
      "\\ti": 213,
      "ngle": 214,
      "mega": 215,
      "matrix}": 216,
      "igma": 217,
      "\\int": 218,
      "amb": 219,
      "ambda": 220,
      "^{-": 221,
      "\\op": 222,
      "\\to": 223,
      "\\g": 224,
      "},": 225,
      "egin": 226,
      "\\begin": 227,
      "\\end": 228,
      "_{j": 229,
      "amma": 230,
      "rat": 231,
      "\\lambda": 232,
      "\\sigma": 233,
      "mes": 234,
      "erat": 235,
      "name": 236,
      "erator": 237,
      "\\operator": 238,
      "\\operatorname": 239,
      "\\var": 240,
      "ver": 241,
      "\\dots": 242,
      "ro": 243,
      "^{n": 244,
      "\\over": 245,
      "}+": 246,
      "{b": 247,
      "(1": 248,
      "lo": 249,
      "^{2}}": 250,
      "ol": 251,
      "{p": 252,
      "t)": 253,
      "\\n": 254,
      "\\inf": 255,
      "hat": 256,
      "\\hat": 257,
      "\\beta": 258,
      "\\infty": 259,
      "={": 260,
      "qu": 261,
      "3}": 262,
      "\\r": 263,
      "\\mathbb": 264,
      "\\d": 265,
      "\\{": 266,
      "\\omega": 267,
      "(x)": 268,
      "}}}": 269,
      "\\le": 270,
      "_{1": 271,
      "t}": 272,
      "ho": 273,
      "cal": 274,
      "{2": 275,
      "^{2": 276,
      "\\mathcal": 277,
      "11": 278,
      "33": 279,
      "\\rho": 280,
      "lon": 281,
      "psi": 282,
      "psilon": 283,
      "44": 284,
      "\\times": 285,
      "ed": 286,
      "99": 287,
      ")}": 288,
      "\\gamma": 289,
      "ad": 290,
      "66": 291,
      "55": 292,
      "77": 293,
      "({": 294,
      "\\phi": 295,
      "88": 296,
      "+1": 297,
      "\\}": 298,
      "_{0}": 299,
      "-1}": 300,
      "22": 301,
      "\\ta": 302,
      "=1}": 303,
      "\\ra": 304,
      "\\rangle": 305,
      "}})": 306,
      "\\co": 307,
      "\\D": 308,
      "quad": 309,
      "\\Delta": 310,
      "ap": 311,
      "=0": 312,
      "0000": 313,
      "_{1},": 314,
      "_{n}": 315,
      "ine": 316,
      "\\sin": 317,
      "line": 318,
      "{R": 319,
      "(n": 320,
      "\\cos": 321,
      "\\delta": 322,
      "{bmatrix}": 323,
      "}_{": 324,
      "-{": 325,
      "om": 326,
      "se": 327,
      "\\varp": 328,
      "\\psi": 329,
      "\\tau": 330,
      "\\big": 331,
      "\\nu": 332,
      "{x": 333,
      "f(": 334,
      "\\varphi": 335,
      "{A": 336,
      "ds": 337,
      "\\lo": 338,
      "{n": 339,
      "\\P": 340,
      "r}": 341,
      ")^{": 342,
      "\\;": 343,
      "e^{": 344,
      "la": 345,
      "{a": 346,
      "{c": 347,
      "angle": 348,
      "0.": 349,
      "de": 350,
      "^{n}": 351,
      "ec": 352,
      "im": 353,
      "dx": 354,
      ")}{": 355,
      "\\log": 356,
      "sty": 357,
      "style": 358,
      "0,": 359,
      "\\cdots": 360,
      "k}": 361,
      "app": 362,
      "ll": 363,
      "\\overline": 364,
      "\\quad": 365,
      "_{m": 366,
      "^{2}}{": 367,
      "}(x": 368,
      "^{2}+": 369,
      "^{-1}": 370,
      "lde": 371,
      "\\tilde": 372,
      "0&": 373,
      "mb": 374,
      "epsilon": 375,
      "\\varepsilon": 376,
      "ign": 377,
      "(2": 378,
      "4}": 379,
      "\\langle": 380,
      "\\bol": 381,
      "{al": 382,
      "{3": 383,
      "ymb": 384,
      "ymbol": 385,
      "{align": 386,
      "(t)": 387,
      "dsymbol": 388,
      "\\boldsymbol": 389,
      "{v": 390,
      "_{t": 391,
      "_{p": 392,
      "{aligned": 393,
      "))": 394,
      "+1}": 395,
      "{E": 396,
      "inom": 397,
      "\\binom": 398,
      "{B": 399,
      "(a": 400,
      "{pmatrix}": 401,
      "}}=": 402,
      "}{1": 403,
      "n}": 404,
      "}{d": 405,
      "}}_{": 406,
      "+{": 407,
      "{C": 408,
      "}}(": 409,
      "T}": 410,
      "\\vec": 411,
      "=1}^{": 412,
      "{P": 413,
      "),": 414,
      "^{3": 415,
      "\\ge": 416,
      "}-": 417,
      "\\|": 418,
      "_{x": 419,
      "e^{-": 420,
      "\\bar": 421,
      "_{a": 422,
      "row": 423,
      "bla": 424,
      "tar": 425,
      "\\na": 426,
      "\\nabla": 427,
      "0}": 428,
      "\\!": 429,
      "_{k}": 430,
      "}={": 431,
      "_{3": 432,
      "Gamma": 433,
      "_{j}": 434,
      "(X": 435,
      "set": 436,
      "\\Gamma": 437,
      "y)": 438,
      "{S": 439,
      "_{2": 440,
      "\\O": 441,
      "s}": 442,
      "\\Omega": 443,
      "\\ln": 444,
      "&=": 445,
      "{x}": 446,
      "\\eta": 447,
      "-2": 448,
      "{d}": 449,
      "10": 450,
      "}}^{": 451,
      "\\pro": 452,
      "{m": 453,
      "(x,": 454,
      "-1)": 455,
      "\\ex": 456,
      "x^{": 457,
      "{r": 458,
      "1,": 459,
      "id": 460,
      "{e": 461,
      "\\x": 462,
      "tarrow": 463,
      "{(": 464,
      "{H": 465,
      "N}": 466,
      "matrix": 467,
      "{F": 468,
      "_{0}^{": 469,
      "y}": 470,
      "igh": 471,
      "j}": 472,
      "/2": 473,
      "\\epsilon": 474,
      "(1-": 475,
      "\\textstyle": 476,
      "{s": 477,
      "{f": 478,
      "{4": 479,
      "rox": 480,
      "ge": 481,
      "}}}}": 482,
      "approx": 483,
      "\\approx": 484,
      "(t": 485,
      "\\rm": 486,
      "imes": 487,
      "_{c": 488,
      "i}": 489,
      "}{2": 490,
      "otimes": 491,
      "_{i})": 492,
      "\\ma": 493,
      "\\otimes": 494,
      "\\pm": 495,
      "\\lim": 496,
      "{u": 497,
      "\\prod": 498,
      "\\mid": 499,
      "}},": 500,
      "ightarrow": 501,
      "{L": 502,
      "(z": 503,
      "{R}": 504,
      "\\xi": 505,
      "m}": 506,
      "{1}{2}}": 507,
      "_{A": 508,
      "st": 509,
      "edge": 510,
      "ir": 511,
      "(A": 512,
      "wedge": 513,
      "iv": 514,
      "}}}{": 515,
      "(s": 516,
      "{T": 517,
      "_{3}": 518,
      "\\Phi": 519,
      "_{2}}": 520,
      "^{2})": 521,
      "us": 522,
      "^{*": 523,
      "_{n})": 524,
      "\\wedge": 525,
      "^{1": 526,
      "_{2},": 527,
      "b}": 528,
      "(k": 529,
      "irc": 530,
      "=0}^{": 531,
      "\\exp": 532,
      ")={": 533,
      "{Z": 534,
      "_{s": 535,
      "\\ell": 536,
      "\\circ": 537,
      ":=": 538,
      "}}={": 539,
      "{X": 540,
      "{k": 541,
      ")+": 542,
      "bset": 543,
      "\\subset": 544,
      "z}": 545,
      "{5": 546,
      "f(x)": 547,
      "}{2}}": 548,
      "_{r": 549,
      "pt": 550,
      "it": 551,
      "{1}{2}": 552,
      "_{x}": 553,
      "\\,d": 554,
      "^*": 555,
      "{t": 556,
      "{M": 557,
      "x)": 558,
      "{aligned}}": 559,
      "{I": 560,
      "quiv": 561,
      "up": 562,
      "{D": 563,
      "{E}": 564,
      "(p": 565,
      "\\equiv": 566,
      "1&": 567,
      "+1)": 568,
      "^{2}-": 569,
      "V_{": 570,
      "}{2}": 571,
      "[{": 572,
      "5}": 573,
      "^{3}": 574,
      "_{1}}": 575,
      "+2": 576,
      "\\k": 577,
      "sf": 578,
      "_{2})": 579,
      "frak": 580,
      "\\mathfrak": 581,
      "\\L": 582,
      "_{X": 583,
      "\\q": 584,
      "{g": 585,
      "_{0})": 586,
      "^{4": 587,
      "1-": 588,
      "\\h": 589,
      "\\f": 590,
      "rightarrow": 591,
      "\\qquad": 592,
      "{r}": 593,
      "0)": 594,
      "\\chi": 595,
      "_{B": 596,
      "{N": 597,
      "\\z": 598,
      "(r": 599,
      "appa": 600,
      "_{e": 601,
      "(-": 602,
      "{G": 603,
      "matrix}}": 604,
      "\\kappa": 605,
      "ora": 606,
      "}{3": 607,
      "=1}^{n}": 608,
      "orall": 609,
      "\\forall": 610,
      "9999": 611,
      "\\u": 612,
      "\\zeta": 613,
      "\\B": 614,
      "_{i}}": 615,
      "{aligned}": 616,
      "^{2}}}": 617,
      "\\hb": 618,
      "_{t}": 619,
      "d}": 620,
      "7777": 621,
      "3333": 622,
      "}(x)": 623,
      "c}": 624,
      "4444": 625,
      "6666": 626,
      "8888": 627,
      "{V": 628,
      "6}": 629,
      ",x": 630,
      "\\hbar": 631,
      "_{1})": 632,
      "/2}": 633,
      "5555": 634,
      "et": 635,
      "0\\\\": 636,
      "1)": 637,
      "\\ne": 638,
      "{ar": 639,
      "eq": 640,
      "}(t)": 641,
      "(y": 642,
      "{Z}": 643,
      "p}": 644,
      "{q": 645,
      "(x)=": 646,
      "12": 647,
      "z)": 648,
      "nder": 649,
      "\\,\\,": 650,
      "\\under": 651,
      "&{": 652,
      "_{i=1}^{": 653,
      "_{y": 654,
      "{O": 655,
      "=-": 656,
      "_{-": 657,
      "1.": 658,
      "\\Big": 659,
      "{y": 660,
      "1111": 661,
      "dt": 662,
      "od": 663,
      "{A}": 664,
      "flo": 665,
      "{{": 666,
      "\\max": 667,
      "\\S": 668,
      "_{f": 669,
      "floor": 670,
      "l}": 671,
      "a}": 672,
      "_{i}^{": 673,
      "(1+": 674,
      "2222": 675,
      "\\mathsf": 676,
      "(u": 677,
      "{z": 678,
      "\\sim": 679,
      "}(X": 680,
      "_{1}+": 681,
      "\\Sigma": 682,
      ")^{2}": 683,
      "(f": 684,
      "^{k": 685,
      "is": 686,
      "\\R": 687,
      "2,": 688,
      "}|": 689,
      "0&0&": 690,
      "_{ij": 691,
      "n)": 692,
      "nt": 693,
      "R_{": 694,
      "})=": 695,
      "lus": 696,
      "{i": 697,
      "}{4": 698,
      "{6": 699,
      "b)": 700,
      "{1-": 701,
      "}}+": 702,
      "{1}{2": 703,
      "{-": 704,
      "(m": 705,
      "^{1}": 706,
      "_{v": 707,
      "(i": 708,
      "]=": 709,
      "{7": 710,
      ")}}": 711,
      "\\Psi": 712,
      "ase": 713,
      "h}": 714,
      "{C}": 715,
      "000": 716,
      "^{2}=": 717,
      "1/": 718,
      "{8": 719,
      "{2}}": 720,
      "{v}": 721,
      "{Q": 722,
      "C_{": 723,
      "\\tan": 724,
      "T_{": 725,
      "')": 726,
      "\\cap": 727,
      "s}}": 728,
      "\\subseteq": 729,
      "}+{": 730,
      "_{i},": 731,
      "_{0}}": 732,
      "(n)": 733,
      "-x": 734,
      "})^{": 735,
      "_{0},": 736,
      "00000000": 737,
      "ce": 738,
      "{case": 739,
      "_{i}=": 740,
      "{arra": 741,
      "(3": 742,
      "{K": 743,
      "(c": 744,
      "E_{": 745,
      "_{ij}": 746,
      "{w": 747,
      "\\underline": 748,
      "sh": 749,
      "_{S": 750,
      "7}": 751,
      ").": 752,
      "sto": 753,
      "x^{2}": 754,
      "P(": 755,
      "_{m}": 756,
      "{B}": 757,
      "_{p}": 758,
      "e^{i": 759,
      "{e}": 760,
      "1+": 761,
      "psto": 762,
      "{10": 763,
      ",y": 764,
      "ee": 765,
      "\\mapsto": 766,
      "_{i=1}^{n}": 767,
      "L}": 768,
      "\\neg": 769,
      "_{b": 770,
      "on": 771,
      "{9": 772,
      ")-": 773,
      "y}{": 774,
      "8}": 775,
      "-1}{": 776,
      "x+": 777,
      "\\oplus": 778,
      "\\Lambda": 779,
      "_{n}(": 780,
      "''": 781,
      "_{i}(": 782,
      "-a": 783,
      "ox": 784,
      "^{i": 785,
      "\\cup": 786,
      "{P}": 787,
      "q}": 788,
      "&={": 789,
      "(v": 790,
      "\\bigg": 791,
      "x_{1}": 792,
      "f_{": 793,
      "(b": 794,
      ",n": 795,
      "_{4": 796,
      "R}": 797,
      "P_{": 798,
      "\\min": 799,
      "^{4}": 800,
      "(q": 801,
      "_{1}}{": 802,
      "}=0": 803,
      "t}}": 804,
      "}({": 805,
      "=1": 806,
      "_{i,": 807,
      "gg": 808,
      "{u}": 809,
      "{h": 810,
      ",b": 811,
      "{p}": 812,
      "min": 813,
      "\\vee": 814,
      "{H}": 815,
      "pla": 816,
      "f(x": 817,
      "\\,dx": 818,
      "9}": 819,
      "(S": 820,
      "dagg": 821,
      "dagger": 822,
      "_{d": 823,
      "2^{": 824,
      "+b": 825,
      "}}+{": 826,
      "^{*}": 827,
      "{X}": 828,
      "\\,{": 829,
      "(g": 830,
      "g}": 831,
      "ispla": 832,
      "{T}": 833,
      "(T": 834,
      "e}": 835,
      "isplay": 836,
      "\\display": 837,
      "\\displaystyle": 838,
      "x_{2}": 839,
      "\\dagger": 840,
      "-k": 841,
      "cri": 842,
      "}{n": 843,
      "_{N": 844,
      "16": 845,
      "_{2}}{": 846,
      "15": 847,
      "cript": 848,
      "_{n-1}": 849,
      "C}": 850,
      "minus": 851,
      "-1)^{": 852,
      "s)": 853,
      ".5": 854,
      "}^": 855,
      "F_{": 856,
      "B)": 857,
      "(0,": 858,
      "p_{": 859,
      "^{5": 860,
      ",{": 861,
      "_{n}=": 862,
      "\\not": 863,
      "[0,": 864,
      "criptstyle": 865,
      "}}{1": 866,
      "2}}{": 867,
      "=2": 868,
      "ft": 869,
      "_{j})": 870,
      "_{i}}{": 871,
      ")]": 872,
      "|x": 873,
      "I_{": 874,
      "{2}": 875,
      "[x": 876,
      "|^{2}": 877,
      "(d": 878,
      "_{k})": 879,
      "A_{": 880,
      "-i": 881,
      "box": 882,
      "13": 883,
      "{a}": 884,
      "\\mbox": 885,
      "\\scriptstyle": 886,
      "{F}": 887,
      "~~": 888,
      "\\ar": 889,
      "ist": 890,
      "{2}{": 891,
      "{U": 892,
      "dots": 893,
      "}^{2}": 894,
      "1\\\\": 895,
      "x=": 896,
      "_{1}=": 897,
      "(P": 898,
      "-3": 899,
      "0}{": 900,
      "}(t": 901,
      "(N": 902,
      "{Bmatrix}": 903,
      "(4": 904,
      "^{+": 905,
      "{o": 906,
      "14": 907,
      "{matrix}": 908,
      "a)": 909,
      "{|": 910,
      "_{z": 911,
      "[X": 912,
      "A)": 913,
      "_{n+1}": 914,
      "}]": 915,
      "{bmatrix}}": 916,
      "25": 917,
      "(M": 918,
      "}{dt": 919,
      "(x,y)": 920,
      "}}]": 921,
      "1}{": 922,
      "}}\\": 923,
      "(x,y": 924,
      "^{k}": 925,
      "p)": 926,
      "x_{i}": 927,
      "}}}}}": 928,
      "'=": 929,
      ",t": 930,
      "_{12}": 931,
      "S_{": 932,
      ")=0": 933,
      "{N}": 934,
      "(s)": 935,
      "P}": 936,
      "(E": 937,
      "3}}": 938,
      "(1)": 939,
      "_{0}}{": 940,
      "_{0}(": 941,
      "\\cong": 942,
      "k_{": 943,
      "\\,\\!": 944,
      "\\rfloor": 945,
      "\\Rightarrow": 946,
      "_{A}": 947,
      "_{n}^{": 948,
      "k)": 949,
      "{x}}": 950,
      "\\bigl": 951,
      "}{dt}": 952,
      "(z)": 953,
      "*}": 954,
      "&&": 955,
      "\\lfloor": 956,
      "\\bigr": 957,
      "\\notin": 958,
      ",\\": 959,
      "^{T}": 960,
      "(R": 961,
      "bf": 962,
      "[n": 963,
      "I}": 964,
      "2}{": 965,
      "{n}{": 966,
      "its": 967,
      "{W": 968,
      ",v": 969,
      "=1,": 970,
      "^{0": 971,
      ",t)": 972,
      "ists": 973,
      "!}": 974,
      "{Y": 975,
      "V}": 976,
      "18": 977,
      "c^{2}}": 978,
      "x_{": 979,
      "\\\\[": 980,
      "^{2}}{2": 981,
      "_{n}}": 982,
      "\\exists": 983,
      "D}": 984,
      "ftrightarrow": 985,
      "at": 986,
      "_{a}^{": 987,
      "]}": 988,
      "_{a}": 989,
      "\\\\&=": 990,
      "{in": 991,
      "|}": 992,
      "{1}{4": 993,
      "\\textbf": 994,
      "_{r}": 995,
      "{k}": 996,
      "M}": 997,
      "-1}}": 998,
      "f}": 999,
      "\\Pi": 1000,
      "_{B}": 1001,
      "\\set": 1002,
      "\\setminus": 1003,
      "^{7": 1004,
      "\\det": 1005,
      "\\;\\;": 1006,
      "20": 1007,
      "2.": 1008,
      "y=": 1009,
      "_{s}": 1010,
      "'}": 1011,
      "(Y": 1012,
      "}}-": 1013,
      "_{l": 1014,
      "(t)=": 1015,
      "{J": 1016,
      "24": 1017,
      "A}": 1018,
      "\\!\\!": 1019,
      "\\limits": 1020,
      "_{c}": 1021,
      "c)": 1022,
      "36": 1023,
      "ngrightarrow": 1024,
      "\\arc": 1025,
      "{1+": 1026,
      "B}": 1027,
      "^{a": 1028,
      "}^{2}}": 1029,
      "r)": 1030,
      "ntom": 1031,
      "3,": 1032,
      "_{y}": 1033,
      "f)": 1034,
      "})}": 1035,
      "u}": 1036,
      "r^{2}": 1037,
      "_{0}+": 1038,
      "\\T": 1039,
      "n}}": 1040,
      "3.": 1041,
      "q)": 1042,
      "(G": 1043,
      "^{p": 1044,
      "0.5": 1045,
      "}=-": 1046,
      "_{k=0}^{": 1047,
      "x}{": 1048,
      "_{11}": 1049,
      "_{2}=": 1050,
      "ul": 1051,
      "17": 1052,
      "(B": 1053,
      "(y)": 1054,
      "E}": 1055,
      "(}": 1056,
      ",m": 1057,
      "il": 1058,
      "{A}}_{": 1059,
      "\\sup": 1060,
      "_{q": 1061,
      "|{": 1062,
      "{S}": 1063,
      ",a": 1064,
      "_{j}}": 1065,
      "_{0}=": 1066,
      "S}": 1067,
      "\\vpha": 1068,
      "\\vphantom": 1069,
      "_{L": 1070,
      "_{o": 1071,
      "_{1}-": 1072,
      "\\Theta": 1073,
      "pt]": 1074,
      "\\vdots": 1075,
      "\\{x": 1076,
      "_{n=1}^{": 1077,
      "1]": 1078,
      "(C": 1079,
      "a_{1}": 1080,
      "(w": 1081,
      "op": 1082,
      "{y}": 1083,
      "30": 1084,
      "_{X}": 1085,
      "\\},": 1086,
      "2)": 1087,
      "K}": 1088,
      "ab": 1089,
      "19": 1090,
      "f'": 1091,
      "\\\\&": 1092,
      "}}\\,": 1093,
      "\\bigc": 1094,
      "{cases}}": 1095,
      ",Y": 1096,
      "-b": 1097,
      "_{w": 1098,
      "80": 1099,
      "(0": 1100,
      "H}": 1101,
      "\\\\{": 1102,
      "^{6": 1103,
      "A=": 1104,
      "{array}{": 1105,
      "(X)": 1106,
      ",k": 1107,
      "int": 1108,
      "^{2}(": 1109,
      "\\textrm": 1110,
      "}^{-1}": 1111,
      "^{m": 1112,
      "-4": 1113,
      "27": 1114,
      "5}}": 1115,
      ">0": 1116,
      "_{4}": 1117,
      "60": 1118,
      "64": 1119,
      "(h": 1120,
      "+c": 1121,
      ",z": 1122,
      "v}": 1123,
      "x^{2}}": 1124,
      "mp": 1125,
      "_{h": 1126,
      ",j": 1127,
      ")|": 1128,
      "\\mathit": 1129,
      "-y": 1130,
      "{bmatrix": 1131,
      "_{T": 1132,
      "0.0": 1133,
      "tan": 1134,
      "ac": 1135,
      "3}{": 1136,
      "}}({": 1137,
      "\\Pr": 1138,
      "=(": 1139,
      "-2}": 1140,
      "^{3}+": 1141,
      "}}})": 1142,
      ",X": 1143,
      "}{dx}": 1144,
      "_{g": 1145,
      "(x_{1},": 1146,
      "(1,": 1147,
      "999": 1148,
      "^{n-1}": 1149,
      "x^{2}+": 1150,
      "}}|": 1151,
      "){": 1152,
      "(0)": 1153,
      "_{n},": 1154,
      "_{z}": 1155,
      ",\\,": 1156,
      "t}]": 1157,
      "\\sma": 1158,
      "for": 1159,
      "{b}": 1160,
      "_{j=1}^{": 1161,
      "c^{2}": 1162,
      "\\Lo": 1163,
      "let": 1164,
      "f}{": 1165,
      "{l": 1166,
      "{n}": 1167,
      "6}{": 1168,
      "a^{2}": 1169,
      "{Q}": 1170,
      "28": 1171,
      "\\{1": 1172,
      "^{3}}": 1173,
      "(V": 1174,
      "-1,": 1175,
      "+n": 1176,
      "+3": 1177,
      "(L": 1178,
      ")/": 1179,
      ".0": 1180,
      "H_{": 1181,
      "}},{": 1182,
      "K_{": 1183,
      "and": 1184,
      "_{1}^{": 1185,
      "X}": 1186,
      "_{e}": 1187,
      "34": 1188,
      "a_{2}": 1189,
      "{T}}": 1190,
      "{x}{": 1191,
      "}}{2": 1192,
      "-m": 1193,
      "ullet": 1194,
      "_{i=0}^{": 1195,
      "}^{n}": 1196,
      "}(x)=": 1197,
      "D_{": 1198,
      "\\bullet": 1199,
      "_{k}}": 1200,
      "[{t}]": 1201,
      "\\smash": 1202,
      "_{k}(": 1203,
      "37": 1204,
      "re": 1205,
      "444": 1206,
      "g_{": 1207,
      "{f}": 1208,
      "(j": 1209,
      "\\,,": 1210,
      "dy": 1211,
      "T)": 1212,
      "})}{": 1213,
      "94": 1214,
      "_{k=1}^{": 1215,
      "x,": 1216,
      "O(": 1217,
      "u}{": 1218,
      "+i": 1219,
      "a_{n}": 1220,
      ",q": 1221,
      "}=1": 1222,
      "ut": 1223,
      "y}}": 1224,
      "}{c": 1225,
      "(F": 1226,
      "^+": 1227,
      "x}}": 1228,
      "{pmatrix}}": 1229,
      "38": 1230,
      "(I": 1231,
      "35": 1232,
      "(-1)^{": 1233,
      ".7": 1234,
      "mod": 1235,
      "u)": 1236,
      "_{n=0}^{": 1237,
      "/4": 1238,
      "{M}": 1239,
      "777": 1240,
      "\\ce": 1241,
      "6}}": 1242,
      "-c": 1243,
      "^{i}": 1244,
      "e^{-i": 1245,
      "a_{": 1246,
      "r_{": 1247,
      "_{0}^{1}": 1248,
      "\\pmod": 1249,
      "555": 1250,
      "{L}": 1251,
      "888": 1252,
      "{I}": 1253,
      "^{n}}": 1254,
      "y^{2}": 1255,
      "})^{2}": 1256,
      "||": 1257,
      "(A)": 1258,
      "=1}^{n": 1259,
      "g(x)": 1260,
      "mpty": 1261,
      "{a}{": 1262,
      "(k)": 1263,
      "(a)": 1264,
      "(D": 1265,
      "_{2}+": 1266,
      "222": 1267,
      "^{3}}{": 1268,
      "S=": 1269,
      "}(X)": 1270,
      "{cases}": 1271,
      "mptyset": 1272,
      "\\emptyset": 1273,
      "111": 1274,
      "\\propt": 1275,
      "\\propto": 1276,
      "_{i+1}": 1277,
      "M_{": 1278,
      ".4": 1279,
      "ime": 1280,
      "000000": 1281,
      "v_{": 1282,
      "_{i}-": 1283,
      "co": 1284,
      "_{3})": 1285,
      "',": 1286,
      "dash": 1287,
      "/2)": 1288,
      "{1}{n": 1289,
      "G}": 1290,
      "(K": 1291,
      "333": 1292,
      "}{m": 1293,
      "_{S}": 1294,
      "M)": 1295,
      "/3": 1296,
      "(n-1)": 1297,
      "R)": 1298,
      "{if": 1299,
      "2&": 1300,
      "^{9": 1301,
      "}}-{": 1302,
      "{D}": 1303,
      "[A": 1304,
      "_{j}^{": 1305,
      "L_{": 1306,
      "}{k": 1307,
      "\\,.": 1308,
      "\\{0,": 1309,
      "(2)": 1310,
      ".8": 1311,
      "666": 1312,
      "100": 1313,
      "50": 1314,
      "=0,": 1315,
      "\\bmod": 1316,
      "\\star": 1317,
      "{100000000": 1318,
      "{4}{": 1319,
      "0\\\\0&": 1320,
      "f(x)=": 1321,
      "}(n": 1322,
      "\\i": 1323,
      "29": 1324,
      "i)": 1325,
      "+1}}": 1326,
      "(H": 1327,
      "{s}": 1328,
      "^{0}": 1329,
      "arrow": 1330,
      "{1}": 1331,
      "}^{n": 1332,
      "}.": 1333,
      "{d^{2}": 1334,
      "rel": 1335,
      "],": 1336,
      "69": 1337,
      "}{a": 1338,
      "m_{": 1339,
      "(U": 1340,
      "(e": 1341,
      "}{r": 1342,
      "(a,": 1343,
      "}(z": 1344,
      "{}": 1345,
      "])": 1346,
      "{m}": 1347,
      "+}": 1348,
      ",w": 1349,
      "a_{i}": 1350,
      "^{n})": 1351,
      "{c}": 1352,
      "-p": 1353,
      "cc": 1354,
      "+k": 1355,
      "+4": 1356,
      "T}{": 1357,
      "N_{": 1358,
      "_{a}^{b}": 1359,
      "\\textsf": 1360,
      "ceil": 1361,
      "\\{1,": 1362,
      "(x-": 1363,
      ",p": 1364,
      "|=": 1365,
      "F}": 1366,
      "d_{": 1367,
      "}{10": 1368,
      "8}}": 1369,
      "\\bigcup": 1370,
      "10^{": 1371,
      "_{22}": 1372,
      "39": 1373,
      "}}{n": 1374,
      "xy": 1375,
      "_{k}^{": 1376,
      "c_{1}": 1377,
      "65": 1378,
      "\\vdash": 1379,
      "^{m}": 1380,
      "en": 1381,
      ".9": 1382,
      "67": 1383,
      "{B}}": 1384,
      "|z": 1385,
      "^{j": 1386,
      "((": 1387,
      "_{C": 1388,
      "10^{-": 1389,
      "erp": 1390,
      "of": 1391,
      "-n": 1392,
      "}}{c": 1393,
      "x_{n}": 1394,
      "}(a": 1395,
      "{A}}": 1396,
      "{q}": 1397,
      "dz": 1398,
      "v)": 1399,
      "x'": 1400,
      "\\,dt": 1401,
      "X)": 1402,
      "_{v}": 1403,
      "T}}": 1404,
      "_{3},": 1405,
      "[n]": 1406,
      "C)": 1407,
      "1}}": 1408,
      "y_{1}": 1409,
      "Y}": 1410,
      "\\perp": 1411,
      "}),": 1412,
      "f(t)": 1413,
      "+a": 1414,
      "\\cosh": 1415,
      "!}}": 1416,
      "_{b}": 1417,
      "J}": 1418,
      "P=": 1419,
      "}{5": 1420,
      "her": 1421,
      "(r)": 1422,
      "(5": 1423,
      "-1&": 1424,
      "{[": 1425,
      "_{k}=": 1426,
      "{p}}": 1427,
      ".}": 1428,
      ",s": 1429,
      "^{2}{": 1430,
      "_{f}": 1431,
      "]}{": 1432,
      "^{2}}}}": 1433,
      "_{k+1}": 1434,
      "[a": 1435,
      "\\longrightarrow": 1436,
      "g)": 1437,
      "+d": 1438,
      ",d": 1439,
      "_{R": 1440,
      "\\sinh": 1441,
      "{z}": 1442,
      "_{2}-": 1443,
      "\\Z": 1444,
      "1\\": 1445,
      "}^{2}}{": 1446,
      "m)": 1447,
      "^{1/": 1448,
      "p_{i}": 1449,
      "ftarrow": 1450,
      "g(": 1451,
      "}}{2}": 1452,
      "_{1}(": 1453,
      ",i": 1454,
      "n_{": 1455,
      "}{100000000": 1456,
      "c_{": 1457,
      "^{2}/": 1458,
      "}}{4": 1459,
      "\\sime": 1460,
      "\\simeq": 1461,
      "55555": 1462,
      "{x})": 1463,
      "(x+": 1464,
      "_{t})": 1465,
      "{e^{": 1466,
      "t}{": 1467,
      "X_{": 1468,
      "r=": 1469,
      "3)": 1470,
      "=\\{": 1471,
      ",c": 1472,
      "44444": 1473,
      "68": 1474,
      "\\arctan": 1475,
      "\\cot": 1476,
      "_{i-1}": 1477,
      "f:": 1478,
      "{K}": 1479,
      "_{1}^{2}": 1480,
      "{pmatrix": 1481,
      "_{t}=": 1482,
      "_{21}": 1483,
      "ck": 1484,
      "}})=": 1485,
      "}\\": 1486,
      "ion": 1487,
      "|X": 1488,
      "m}}": 1489,
      "|}{": 1490,
      "_{i=1}^{N}": 1491,
      "{1}{1": 1492,
      "A^{": 1493,
      "75": 1494,
      "99999": 1495,
      "\\leftarrow": 1496,
      "88888": 1497,
      "A,": 1498,
      "_{1,": 1499,
      "{n}}": 1500,
      "_{2}(": 1501,
      "p_{1}": 1502,
      "x_{2},": 1503,
      "90": 1504,
      ")\\,": 1505,
      "77777": 1506,
      "V_": 1507,
      "32": 1508,
      "=1}^": 1509,
      "{for": 1510,
      "_{i,j": 1511,
      "r}(": 1512,
      "{1}{3": 1513,
      "-t": 1514,
      "333333": 1515,
      "\\%": 1516,
      "}}{d": 1517,
      ")=1": 1518,
      "y'": 1519,
      "E[": 1520,
      "_{P": 1521,
      "666666": 1522,
      "n=": 1523,
      "-z": 1524,
      "f^{-1}": 1525,
      "999999": 1526,
      "(f)": 1527,
      "(}{": 1528,
      "40": 1529,
      "_{M": 1530,
      "}[": 1531,
      "888888": 1532,
      "p(": 1533,
      "(X,": 1534,
      "(n+1)": 1535,
      "444444": 1536,
      "{F}}": 1537,
      "r}}": 1538,
      "_{u": 1539,
      "70": 1540,
      "22222": 1541,
      "|A": 1542,
      "_{n}}{": 1543,
      "{g}": 1544,
      "4}{": 1545,
      "|<": 1546,
      "{d}{d": 1547,
      "33333": 1548,
      "h)": 1549,
      "X^{": 1550,
      "r^{2}}": 1551,
      "a=": 1552,
      "777777": 1553,
      "0\\\\0&0&": 1554,
      "{j": 1555,
      "es": 1556,
      "x^{3}": 1557,
      "du": 1558,
      "+2}": 1559,
      "^{2}}{4": 1560,
      "}\\,": 1561,
      "t)=": 1562,
      "/{": 1563,
      "\\top": 1564,
      "}))": 1565,
      "E)": 1566,
      "\\mod": 1567,
      "{Hom": 1568,
      "7}}": 1569,
      "(z)=": 1570,
      "\\Bigg": 1571,
      "x-": 1572,
      "45": 1573,
      "{O}": 1574,
      "p}{": 1575,
      "_{k-1}": 1576,
      "66666": 1577,
      "L}{": 1578,
      "V}{": 1579,
      "sla": 1580,
      "48": 1581,
      "00000": 1582,
      "{dy": 1583,
      "f,": 1584,
      "v=": 1585,
      "}(n)": 1586,
      "F(": 1587,
      "z=": 1588,
      "{r}}": 1589,
      "^{2},": 1590,
      "{G}": 1591,
      "555555": 1592,
      "}(1-": 1593,
      "{tr}": 1594,
      "Y)": 1595,
      "1\\}": 1596,
      "&-": 1597,
      ")\\": 1598,
      "g^{": 1599,
      "}})^{": 1600,
      "f^{": 1601,
      "})+": 1602,
      "artheta": 1603,
      "\\vartheta": 1604,
      "11111": 1605,
      "E=": 1606,
      "ow": 1607,
      "}).": 1608,
      "{3}{": 1609,
      "}{1-": 1610,
      "O}": 1611,
      "}=2": 1612,
      "[0,1]": 1613,
      "4,": 1614,
      "V)": 1615,
      "_{2}^{": 1616,
      "(|": 1617,
      "N}}": 1618,
      "sin": 1619,
      "\\Longrightarrow": 1620,
      "_{2}}}": 1621,
      "{dx": 1622,
      "Z_{": 1623,
      "(1/": 1624,
      ")^{-1}": 1625,
      "=0}^": 1626,
      "{Sp": 1627,
      "if": 1628,
      "Q_{": 1629,
      "_{k=1}^{n}": 1630,
      "s_{": 1631,
      "_{i=1}^{n": 1632,
      "^{d": 1633,
      "_{t}^{": 1634,
      "h_{": 1635,
      "{w}": 1636,
      "U}": 1637,
      "3&": 1638,
      "\\\\0&": 1639,
      "}}.": 1640,
      "_{10": 1641,
      "_{i}}}": 1642,
      "_{0}^": 1643,
      "n}{": 1644,
      "n^{": 1645,
      "\\}.": 1646,
      "{V}": 1647,
      "e_{": 1648,
      "{i}": 1649,
      "z^{": 1650,
      "_{m})": 1651,
      "}(s": 1652,
      "V=": 1653,
      "ar}": 1654,
      "7}{": 1655,
      "{0": 1656,
      "y_{i}": 1657,
      "\\#": 1658,
      "{5}{": 1659,
      "1&1&": 1660,
      "{3}": 1661,
      "+q": 1662,
      "U_{": 1663,
      "=0.": 1664,
      "}}{k": 1665,
      "5}{": 1666,
      "(1-{": 1667,
      "G_{": 1668,
      "ep": 1669,
      "26": 1670,
      "n-1}": 1671,
      "p=": 1672,
      "^-": 1673,
      "t+": 1674,
      ")^{3": 1675,
      "f=": 1676,
      "_{j},": 1677,
      "}(x,": 1678,
      "X_{i}": 1679,
      "S)": 1680,
      "t=": 1681,
      "\\}}": 1682,
      "_{0}}}": 1683,
      "^{-2}": 1684,
      "~{": 1685,
      "(x))": 1686,
      "^{1/2}": 1687,
      "B_{": 1688,
      "^{8": 1689,
      "{aligned}{": 1690,
      "(2n": 1691,
      "'}{": 1692,
      "x_{0}": 1693,
      "{d}{": 1694,
      "_{j}=": 1695,
      "^{p}": 1696,
      "}^{1}": 1697,
      "R=": 1698,
      "X=": 1699,
      "e}}": 1700,
      "-2)": 1701,
      "y,": 1702,
      "-(": 1703,
      "-r": 1704,
      "]+": 1705,
      "{and": 1706,
      "{matrix}}": 1707,
      "}{3}}": 1708,
      "v}{": 1709,
      "o}": 1710,
      "78": 1711,
      "f_{1}": 1712,
      "(l": 1713,
      "N)": 1714,
      "mall": 1715,
      "c_{2}": 1716,
      "e^{2": 1717,
      "\\angle": 1718,
      "|_{": 1719,
      "_{0}^{t}": 1720,
      "i}}": 1721,
      ",r": 1722,
      "p(x)": 1723,
      ",u": 1724,
      "23": 1725,
      "_{1}}}": 1726,
      "95": 1727,
      ":{": 1728,
      "x.": 1729,
      "9}{": 1730,
      "_{p}(": 1731,
      ",x_{n})": 1732,
      "\\{{": 1733,
      "G)": 1734,
      "{small": 1735,
      "\\|_{": 1736,
      "}{1+": 1737,
      "w}": 1738,
      "00}": 1739,
      "all": 1740,
      "1/2": 1741,
      "9}}": 1742,
      "2}}}": 1743,
      "{3}}": 1744,
      "_{n,": 1745,
      "^{2}}{c^{2}}": 1746,
      "F=": 1747,
      "_{k},": 1748,
      "|a": 1749,
      "|+": 1750,
      "_{x}(": 1751,
      "{U}": 1752,
      "}}}={": 1753,
      "(n)=": 1754,
      "\\})": 1755,
      "f(z": 1756,
      "(p)": 1757,
      "ur": 1758,
      "ngleftrightarrow": 1759,
      "a^{": 1760,
      "(-1)": 1761,
      "\\,\\,\\,": 1762,
      "!}{": 1763,
      "{ad": 1764,
      "race": 1765,
      "97": 1766,
      "y_{2}": 1767,
      "E(": 1768,
      "Q)": 1769,
      "th": 1770,
      "b^{2}": 1771,
      "ia": 1772,
      "]{": 1773,
      "0\\}": 1774,
      "_{D": 1775,
      "b_{1}": 1776,
      "\\leftrightarrow": 1777,
      "111111": 1778,
      "_{ab": 1779,
      "&0&": 1780,
      "(i)": 1781,
      "S(": 1782,
      "I)": 1783,
      "p_{2}": 1784,
      "x_{1},": 1785,
      "{R}^{": 1786,
      "p,": 1787,
      "_{G": 1788,
      "ic": 1789,
      "{V_{": 1790,
      ")=-": 1791,
      "63": 1792,
      "z}{": 1793,
      "_{3}}": 1794,
      "{9}{": 1795,
      "+x": 1796,
      "1}}{": 1797,
      "p}}": 1798,
      "+m": 1799,
      "(1)}": 1800,
      "(x)}{": 1801,
      "RT": 1802,
      "{de": 1803,
      "'(": 1804,
      "}^{-": 1805,
      "000}{": 1806,
      "{10000": 1807,
      "_{j}(": 1808,
      "222222": 1809,
      "\\bigop": 1810,
      "(u)": 1811,
      "\\bigoplus": 1812,
      "(t,": 1813,
      "a_{0}": 1814,
      "}=(": 1815,
      "_{i}|": 1816,
      "n}(": 1817,
      "_{j=0}^{": 1818,
      "6.": 1819,
      "C=": 1820,
      "}}[": 1821,
      "A_{1}": 1822,
      "riangle": 1823,
      "\\up": 1824,
      "_{n}(x)": 1825,
      "{0}": 1826,
      "-1/": 1827,
      "^{n+1}": 1828,
      "(x,y)=": 1829,
      "~.": 1830,
      "{c}{": 1831,
      "\\xrightarrow": 1832,
      "{array}}": 1833,
      "dV": 1834,
      "z^{2}": 1835,
      "^{s": 1836,
      "}}{2}}": 1837,
      "+B": 1838,
      "{J}": 1839,
      "{bmatrix}1&": 1840,
      "{X}}": 1841,
      "{e}}": 1842,
      "5,": 1843,
      "_*": 1844,
      "4&": 1845,
      "\\overset": 1846,
      "{t}{": 1847,
      "98": 1848,
      "\\uparrow": 1849,
      "[t": 1850,
      "a,": 1851,
      "{co": 1852,
      "_{3}=": 1853,
      "y^{2}}": 1854,
      "_{ij}=": 1855,
      "\\Longleftrightarrow": 1856,
      "},{": 1857,
      "}})^{2}": 1858,
      "e^{x}": 1859,
      "B=": 1860,
      "}(k": 1861,
      "_{0}^{2}": 1862,
      "6}}{": 1863,
      "L=": 1864,
      "k}}": 1865,
      "(t))": 1866,
      "\\;{": 1867,
      "v_{i}": 1868,
      "^{3})": 1869,
      "4.": 1870,
      "_{R}": 1871,
      "4}}": 1872,
      "k-1}": 1873,
      "-1)}": 1874,
      "-d": 1875,
      "F)": 1876,
      "|0": 1877,
      "Z)": 1878,
      "\\oint": 1879,
      "s}{": 1880,
      "\\ll": 1881,
      "C^{": 1882,
      "},\\": 1883,
      "}(z)": 1884,
      "-1/2}": 1885,
      "-5": 1886,
      "M=": 1887,
      "_{2}^{2}": 1888,
      "].": 1889,
      "1-{": 1890,
      "cos": 1891,
      "}}x": 1892,
      "{1}{2}}{": 1893,
      "k}{": 1894,
      "ct": 1895,
      "^{-1})": 1896,
      "{f}}": 1897,
      "_{i,j}": 1898,
      "^{+}": 1899,
      "y^{": 1900,
      "{t}": 1901,
      "k=": 1902,
      "{a}}": 1903,
      "B,": 1904,
      "k^{2}": 1905,
      "_{i}+": 1906,
      "\\biggl": 1907,
      "Q=": 1908,
      "\\triangle": 1909,
      "2{": 1910,
      "_{n}+": 1911,
      ",z)": 1912,
      "ss": 1913,
      "z}}": 1914,
      "0<": 1915,
      "}(A": 1916,
      "f(z)": 1917,
      "V,": 1918,
      "_{Y": 1919,
      "}^{*": 1920,
      "0.8": 1921,
      "eph": 1922,
      "1,2,": 1923,
      "96": 1924,
      "\\aleph": 1925,
      "(1+{": 1926,
      "w)": 1927,
      "b=": 1928,
      "{(2": 1929,
      "(n,": 1930,
      "^{(": 1931,
      "(x,t)": 1932,
      "c=": 1933,
      "_{H": 1934,
      "}(X,": 1935,
      "tack": 1936,
      "L)": 1937,
      "{ra": 1938,
      "^{4}}": 1939,
      "}{dt}=": 1940,
      "3}}{": 1941,
      "P)": 1942,
      "a,b": 1943,
      "|)": 1944,
      "]^{": 1945,
      "\\,\\,\\,\\,": 1946,
      "+1}{": 1947,
      "^{2}+2": 1948,
      "{Y}": 1949,
      "(-{": 1950,
      "5}}{": 1951,
      "O(n": 1952,
      "|S": 1953,
      "(a,b": 1954,
      "_{{": 1955,
      "/n": 1956,
      "G=": 1957,
      "i=1,": 1958,
      "}^{3}": 1959,
      "-s": 1960,
      "[3": 1961,
      ",0": 1962,
      "F(x)": 1963,
      "brace": 1964,
      "_{i}{": 1965,
      "}&": 1966,
      "F_{1}": 1967,
      "\\stack": 1968,
      "\\stackrel": 1969,
      "v^{2}": 1970,
      "u=": 1971,
      "}=\\{": 1972,
      ")(": 1973,
      "{15": 1974,
      "8}{": 1975,
      "\\biggr": 1976,
      "-1}}{": 1977,
      "{3}{2}}": 1978,
      "n^{2}": 1979,
      "[-": 1980,
      "{L}}": 1981,
      "7.": 1982,
      "_{T}": 1983,
      "m_{1}": 1984,
      "_{C}": 1985,
      "_{3}(": 1986,
      "0.4": 1987,
      "m}{": 1988,
      "{R}}": 1989,
      "(n)}": 1990,
      "K=": 1991,
      "Z}": 1992,
      "_{n}]": 1993,
      "{H}}": 1994,
      "H=": 1995,
      "+j": 1996,
      "56": 1997,
      "D)": 1998,
      "x})": 1999,
      "{1}{n}": 2000,
      "(W": 2001,
      "m^{2}": 2002,
      "00}{": 2003,
      "_{j=1}^{n}": 2004,
      "t_{": 2005,
      "{1}{1-": 2006,
      "(2,": 2007,
      "_{t},": 2008,
      "_{p}}": 2009,
      "\\tanh": 2010,
      "/c": 2011,
      "w_{i}": 2012,
      "ut}": 2013,
      "^{r": 2014,
      "ing": 2015,
      "b_{2}": 2016,
      "x,y": 2017,
      "\\sec": 2018,
      "^{*}(": 2019,
      "Q}": 2020,
      "^{n}(": 2021,
      "\\deg": 2022,
      "+1)}": 2023,
      "_{3}+": 2024,
      "^{4}+": 2025,
      "2x": 2026,
      "V(": 2027,
      "9}}{": 2028,
      "sc": 2029,
      "{b}{": 2030,
      "[{t}]{2}}": 2031,
      "W}": 2032,
      "{C}}": 2033,
      "m}(": 2034,
      "\\\\&={": 2035,
      "+1)}{": 2036,
      "}(t)=": 2037,
      "{d}}": 2038,
      "{Re}": 2039,
      "C_{1}": 2040,
      "{1}{3}": 2041,
      "t^{2}}": 2042,
      "{m}{": 2043,
      "ln": 2044,
      "s=": 2045,
      "^{2n": 2046,
      "\\lceil": 2047,
      "{z}}": 2048,
      "S}{": 2049,
      "{r})": 2050,
      "{E}[": 2051,
      "2n": 2052,
      "_{K": 2053,
      "\\rceil": 2054,
      "(3)": 2055,
      "K)": 2056,
      "_+": 2057,
      "|f": 2058,
      "^{2}}{2}": 2059,
      "|1": 2060,
      "_{I": 2061,
      "L(": 2062,
      "\\bf": 2063,
      "_{t-1}": 2064,
      "(x_{1}": 2065,
      "{x}})": 2066,
      "{p}{": 2067,
      "|x|": 2068,
      "0\\": 2069,
      "c}{": 2070,
      "{v}{": 2071,
      "own": 2072,
      "t}=": 2073,
      "X_{1}": 2074,
      "v_{1}": 2075,
      "{1}{3}}": 2076,
      "[X]": 2077,
      ")}^{": 2078,
      "tt": 2079,
      "_{c}=": 2080,
      "t^{2}": 2081,
      "^{a}": 2082,
      "_{10}": 2083,
      "(10": 2084,
      "\\\\[6": 2085,
      "r_{1}": 2086,
      "\\supset": 2087,
      "A_{i}": 2088,
      "t})": 2089,
      "{\\": 2090,
      "m=": 2091,
      "{z}{": 2092,
      "-j": 2093,
      "-1)}{": 2094,
      "I=": 2095,
      "R_": 2096,
      "c}}": 2097,
      "_{V}": 2098,
      "5.": 2099,
      "^{10": 2100,
      "{S}}": 2101,
      "\\iint": 2102,
      "0}}": 2103,
      "^{2}}{2}}": 2104,
      "(A,": 2105,
      "-a)": 2106,
      "s^{2}": 2107,
      "[x]": 2108,
      "a^{2}}": 2109,
      "b}}": 2110,
      "{y}{": 2111,
      "{vmatrix}": 2112,
      "_{xx}": 2113,
      "47": 2114,
      "9.": 2115,
      "C}}": 2116,
      "4}+": 2117,
      "^{5}": 2118,
      "T=": 2119,
      "t,": 2120,
      "\\ddots": 2121,
      "(G)": 2122,
      "m_{2}": 2123,
      ")=2": 2124,
      "{in}": 2125,
      "N-1}": 2126,
      "a}}": 2127,
      "\\Le": 2128,
      "'(x)": 2129,
      "M,": 2130,
      "{1}{n}}": 2131,
      "AB": 2132,
      "y_{": 2133,
      "W_{": 2134,
      "(x_{i})": 2135,
      "{O}}_{": 2136,
      "(Q": 2137,
      ",f": 2138,
      "T})": 2139,
      "\\y": 2140,
      "_{j}}{": 2141,
      "+r": 2142,
      "-v": 2143,
      "6)": 2144,
      "h}}": 2145,
      "^{j}": 2146,
      "an": 2147,
      "{d}{dx}": 2148,
      "ax": 2149,
      "5)": 2150,
      "{re": 2151,
      "8.": 2152,
      "}(s)": 2153,
      "{12": 2154,
      "}^{i": 2155,
      "J_{": 2156,
      "^{4}}{": 2157,
      "d^{3}": 2158,
      "-q": 2159,
      "^{-1}(": 2160,
      "-u": 2161,
      "k_{1}": 2162,
      "{u}}": 2163,
      ":={": 2164,
      "1&0&": 2165,
      "cd": 2166,
      "+1,": 2167,
      ")^{1/": 2168,
      "N=": 2169,
      "_{N}": 2170,
      "}{2}})": 2171,
      "(v)": 2172,
      "{Spec": 2173,
      "-k}": 2174,
      "1{": 2175,
      "87": 2176,
      "{({": 2177,
      "}+{}": 2178,
      "{e^{-": 2179,
      "_{1}}^{": 2180,
      "{Re": 2181,
      "{1}{4}}": 2182,
      "{array": 2183,
      "\\Leftrightarrow": 2184,
      "}{2})": 2185,
      "y}{dx": 2186,
      "1/2}": 2187,
      "(Z": 2188,
      "in}": 2189,
      "_{E}": 2190,
      "\\\\[6pt]": 2191,
      "r_{2}": 2192,
      "\\bigcap": 2193,
      "(a,b)": 2194,
      "49": 2195,
      "(u,v": 2196,
      "_{q}": 2197,
      "^{b": 2198,
      "}{R": 2199,
      "n_{2}": 2200,
      "x(t)": 2201,
      "+C": 2202,
      "w}{": 2203,
      ",1}": 2204,
      "Y=": 2205,
      "x^{n}": 2206,
      "\\Bigr": 2207,
      ",N": 2208,
      "|V": 2209,
      "|}}": 2210,
      "^{n}}{": 2211,
      "\\underbrace": 2212,
      "{g}}": 2213,
      "F^{": 2214,
      "[f": 2215,
      "}(y": 2216,
      "{7}{": 2217,
      "{array}": 2218,
      "2^{2": 2219,
      "{8}{": 2220,
      "<0": 2221,
      "2^{-": 2222,
      "A_{2}": 2223,
      "{6}{": 2224,
      "d)": 2225,
      "i,j": 2226,
      "_{+": 2227,
      "L}}": 2228,
      "_{0}}^{": 2229,
      "_{i=1}^{k}": 2230,
      "S^{": 2231,
      "{y}}": 2232,
      "X,": 2233,
      "q=": 2234,
      "^{2}}})": 2235,
      "R^{2}": 2236,
      "K(": 2237,
      "n!": 2238,
      "x_{3}": 2239,
      "G,": 2240,
      "a_{1},": 2241,
      "/(": 2242,
      "E_": 2243,
      "}^{+": 2244,
      "y+": 2245,
      "{h}": 2246,
      "_{L}": 2247,
      "{11": 2248,
      "}^{2}}}": 2249,
      "{con": 2250,
      "po": 2251,
      "|E": 2252,
      ")=(": 2253,
      "2\\,": 2254,
      "_{ab}": 2255,
      "58": 2256,
      "[y": 2257,
      "N}{": 2258,
      "x^{3}+": 2259,
      "{id": 2260,
      "\\mathrel": 2261,
      "_{n}-": 2262,
      "ara": 2263,
      "\\Bigl": 2264,
      "6,": 2265,
      "X_{2}": 2266,
      "f_{2}": 2267,
      "{P}(": 2268,
      "{1}{4}": 2269,
      "^{*})": 2270,
      "_{o}": 2271,
      "{D}}": 2272,
      "^{2}+{": 2273,
      "_{i})=": 2274,
      "1+{": 2275,
      "[k": 2276,
      "}}}=": 2277,
      "\\odot": 2278,
      "}},\\": 2279,
      "+p": 2280,
      "x_{j}": 2281,
      "d_{1}": 2282,
      "p^{": 2283,
      "}^{*}": 2284,
      "{P}}": 2285,
      "{N}}": 2286,
      "_{i=1}^{m}": 2287,
      "}{4}}": 2288,
      "k}(": 2289,
      "{44": 2290,
      "0.7": 2291,
      "{F}_{": 2292,
      "T^{": 2293,
      "n,": 2294,
      "_{3}}{": 2295,
      "H(": 2296,
      "x^{n": 2297,
      "ve": 2298,
      "{1}{k": 2299,
      "f\\": 2300,
      "_{w}": 2301,
      "ack": 2302,
      "U)": 2303,
      "{1}{1+": 2304,
      "\\underset": 2305,
      "x}}{": 2306,
      "|B": 2307,
      "ight": 2308,
      "(t),": 2309,
      "+(": 2310,
      "d}}": 2311,
      "g=": 2312,
      "x}=": 2313,
      "\\!\\!\\!": 2314,
      ".{": 2315,
      "4)": 2316,
      "7}}{": 2317,
      "_{j}-": 2318,
      "S,": 2319,
      "[2": 2320,
      "_{1}},": 2321,
      "{c}}": 2322,
      "ect": 2323,
      "_{p})": 2324,
      "{e}_{": 2325,
      "_{V": 2326,
      "}}=-": 2327,
      "R_{1}": 2328,
      "}(f": 2329,
      "^{3}}}": 2330,
      "&a": 2331,
      "[}": 2332,
      "_{E": 2333,
      "_{1}{": 2334,
      "x_{i}}": 2335,
      "f(y)": 2336,
      "ise": 2337,
      "x^{2}-": 2338,
      "dr": 2339,
      "f(a": 2340,
      ")^{3}": 2341,
      "{m}}": 2342,
      "(T)": 2343,
      "{Tr}": 2344,
      "e^{-{": 2345,
      "4}}{": 2346,
      "(M)": 2347,
      "(E)": 2348,
      "\\arccos": 2349,
      "Z=": 2350,
      "u_{1}": 2351,
      "t_{1}": 2352,
      "-1})": 2353,
      "^{2}+b": 2354,
      "/p": 2355,
      "57": 2356,
      "}^{T}": 2357,
      "_{t}}": 2358,
      "_{k=0}^{n}": 2359,
      "_{c}^{": 2360,
      "\\,dy": 2361,
      "R^{": 2362,
      "D=": 2363,
      "_{n}(x": 2364,
      "e)": 2365,
      "{W}": 2366,
      "P}{": 2367,
      "u_{i}": 2368,
      "t^{": 2369,
      "(1-p": 2370,
      "&0": 2371,
      "+h": 2372,
      "c_{i}": 2373,
      ")}.": 2374,
      "(s)=": 2375,
      "{33": 2376,
      "_{n=1}^": 2377,
      "_{0}-": 2378,
      "(X,Y": 2379,
      "+1}}{": 2380,
      "l}}": 2381,
      "_{m}}": 2382,
      "_{F": 2383,
      "{k}}": 2384,
      "/2}}": 2385,
      "P_{1}": 2386,
      "_{k}}{": 2387,
      "+2)": 2388,
      ",2": 2389,
      "-8": 2390,
      "T(": 2391,
      "x_{i": 2392,
      "A_": 2393,
      "d^{2}": 2394,
      "_{i=": 2395,
      "{2}{3": 2396,
      "C_{2}": 2397,
      "P_": 2398,
      "|n": 2399,
      "al}": 2400,
      "-1\\\\": 2401,
      "e^{-2": 2402,
      "{v}}": 2403,
      "P(X": 2404,
      "ff": 2405,
      "})-": 2406,
      "u_{": 2407,
      "}(r": 2408,
      "_{n}\\}": 2409,
      "0.00": 2410,
      "/m": 2411,
      "b,": 2412,
      "(x;": 2413,
      "}(p": 2414,
      "_{p}=": 2415,
      "^{2}+y": 2416,
      "(g)": 2417,
      "ch": 2418,
      "2\\\\": 2419,
      "els": 2420,
      "{aligned}&": 2421,
      "12}": 2422,
      "a_{k}": 2423,
      "|y": 2424,
      "{1}{r": 2425,
      "}+2": 2426,
      "|\\,": 2427,
      "{q}}": 2428,
      "F}{": 2429,
      "\\N": 2430,
      "f(t": 2431,
      "{Hom}": 2432,
      "^{c": 2433,
      "(t)}": 2434,
      "\\arg": 2435,
      "(x),": 2436,
      "[(": 2437,
      "(b)": 2438,
      "})]": 2439,
      "\\ominus": 2440,
      "\\models": 2441,
      "W=": 2442,
      "u,": 2443,
      "(i)}": 2444,
      "[4": 2445,
      "k_{2}": 2446,
      "(2)}": 2447,
      "{k}{": 2448,
      "-A": 2449,
      "x_{n})": 2450,
      "_{t+1}": 2451,
      "-B": 2452,
      "m,": 2453,
      "=\\": 2454,
      "T_": 2455,
      "_{i}(x": 2456,
      "(x)}": 2457,
      "/k": 2458,
      "H_{2}": 2459,
      "e_{i}": 2460,
      "z^{2}}": 2461,
      "(x)={": 2462,
      "P}}": 2463,
      "g}}": 2464,
      "\\{\\{": 2465,
      "e^{j": 2466,
      "0.2": 2467,
      "x\\": 2468,
      "{1}{p": 2469,
      "\\back": 2470,
      "_{n}}}": 2471,
      "{2}}{": 2472,
      "slash": 2473,
      "{dy}{dx}": 2474,
      "[3]": 2475,
      "\\dim": 2476,
      "&=&": 2477,
      "{Var}": 2478,
      "e_{1}": 2479,
      "_{s}}": 2480,
      "43": 2481,
      "^{q": 2482,
      "-10": 2483,
      "_{x}=": 2484,
      "}(0)": 2485,
      "|c": 2486,
      "[A]": 2487,
      "[S": 2488,
      "0)=": 2489,
      "n_{i}": 2490,
      "u'": 2491,
      "{16": 2492,
      "+10": 2493,
      "(q)": 2494,
      ",T": 2495,
      "b_{i}": 2496,
      "w_{": 2497,
      "here": 2498,
      ",A": 2499,
      "7,": 2500,
      "+5": 2501,
      "{dx}{": 2502,
      "}(2": 2503,
      "f_{i}": 2504,
      "{le": 2505,
      "_{M}": 2506,
      "=0}": 2507,
      "slant": 2508,
      "P(A": 2509,
      "[i": 2510,
      "u,v": 2511,
      "^{-^{-": 2512,
      "{r},": 2513,
      "(m)": 2514,
      "u^{": 2515,
      "/a": 2516,
      "~,": 2517,
      "_{i}={": 2518,
      "_{x}}{": 2519,
      "\\backslash": 2520,
      "8}}{": 2521,
      "(r,": 2522,
      ")^{2}}": 2523,
      "R_{2}": 2524,
      "er}": 2525,
      "89": 2526,
      "b^{2}}": 2527,
      "r}{": 2528,
      "^{d}": 2529,
      "(k)}": 2530,
      "ownarrow": 2531,
      "/d": 2532,
      "x\\,": 2533,
      "D^{": 2534,
      "G(": 2535,
      "H)": 2536,
      "_{01}": 2537,
      "}(T": 2538,
      "{s}}": 2539,
      "-f": 2540,
      "ity": 2541,
      "^{n}=": 2542,
      "f(x)dx": 2543,
      ",t)=": 2544,
      "_{i}^{2}": 2545,
      "^{2}-4": 2546,
      "\\arcsin": 2547,
      "P^{": 2548,
      "{E}}": 2549,
      "\\}=": 2550,
      "=1,2,": 2551,
      "{(x": 2552,
      "{j}": 2553,
      "{n-1}{": 2554,
      "rho": 2555,
      "_{13}": 2556,
      ",-": 2557,
      "46": 2558,
      "s_{1}": 2559,
      "{matrix": 2560,
      "}:": 2561,
      "\\varrho": 2562,
      "}}=-{": 2563,
      "\\ddot": 2564,
      "}(x,y": 2565,
      "85": 2566,
      "C(": 2567,
      "+v": 2568,
      "X'": 2569,
      "_{r})": 2570,
      "d=": 2571,
      "3})": 2572,
      "Y_{": 2573,
      "0&0&0&": 2574,
      "_{s}}{": 2575,
      "}+1": 2576,
      "_{xy": 2577,
      "<1": 2578,
      "f(X": 2579,
      ",0)": 2580,
      "_{n=0}^": 2581,
      "_{2}{": 2582,
      "^{*}=": 2583,
      "[H": 2584,
      ",x)": 2585,
      "84": 2586,
      "n_{1}": 2587,
      "(a+b": 2588,
      "{i}{": 2589,
      "-E": 2590,
      "C,": 2591,
      "_{j}}}": 2592,
      "|z|": 2593,
      "ota": 2594,
      "p}(": 2595,
      "{or": 2596,
      "{bmatrix}}{": 2597,
      "R}}": 2598,
      "dS": 2599,
      "k})": 2600,
      "_{k}-": 2601,
      "h(": 2602,
      "}{10000": 2603,
      ",n)": 2604,
      "G^{": 2605,
      "i})": 2606,
      "k}=": 2607,
      "{5}}": 2608,
      "(e^{": 2609,
      "]]": 2610,
      "_{d}": 2611,
      "{17": 2612,
      ")}=": 2613,
      "L^{2}": 2614,
      "\\downarrow": 2615,
      "a_{2},": 2616,
      "Y,": 2617,
      "{Co": 2618,
      "(0)=": 2619,
      "59": 2620,
      "R(": 2621,
      "j)": 2622,
      "\\Box": 2623,
      "}(y)": 2624,
      "_{m}=": 2625,
      ":a": 2626,
      "}^{0}": 2627,
      "A(": 2628,
      "A}}": 2629,
      "Cl": 2630,
      "P,": 2631,
      "{f(": 2632,
      "}(q": 2633,
      "}^{k}": 2634,
      "^{n}}{n": 2635,
      "_{xy}": 2636,
      "{O}_{": 2637,
      "&b": 2638,
      "n})": 2639,
      "{pmatrix}a": 2640,
      "_{r}}": 2641,
      "-i}": 2642,
      "z+": 2643,
      "V_{1}": 2644,
      "_{l}": 2645,
      "(t)}{": 2646,
      "{Im}": 2647,
      "\\textit": 2648,
      "\\iota": 2649,
      "-T": 2650,
      "<{": 2651,
      "a+b": 2652,
      "~~~~": 2653,
      "-I": 2654,
      "p'": 2655,
      "000}": 2656,
      "_{0}^{x}": 2657,
      "{L}}_{": 2658,
      ",g": 2659,
      "v_": 2660,
      "e^{2}": 2661,
      "x)=": 2662,
      "{d}{dt}": 2663,
      "v_{2}": 2664,
      ")=\\{": 2665,
      "-x)": 2666,
      "42": 2667,
      "ub": 2668,
      "\\;0": 2669,
      "_{n})=": 2670,
      "i}=": 2671,
      "b}{": 2672,
      "}}&": 2673,
      "-1]": 2674,
      ")))": 2675,
      "\\\\[5": 2676,
      "/K": 2677,
      "(x_{i}": 2678,
      "\\{1,2,": 2679,
      "dA": 2680,
      "_{g}": 2681,
      "{3}{2}": 2682,
      "{10}{": 2683,
      "{dy}{dx": 2684,
      "}(x,y)": 2685,
      "rr": 2686,
      "_{*": 2687,
      "(x_{0})": 2688,
      "0.6": 2689,
      "^{2}}{c^{2}}}}": 2690,
      "A}{": 2691,
      "f_{n}": 2692,
      "other": 2693,
      "{2n": 2694,
      "m_{i}": 2695,
      "\\gg": 2696,
      "x)^{": 2697,
      "2})": 2698,
      "}(f)": 2699,
      "{n}{2}": 2700,
      "_{0}^{2": 2701,
      "_{0}^{T}": 2702,
      "_{r}=": 2703,
      "{I}}": 2704,
      "(2k": 2705,
      "x_{j}}": 2706,
      "D}}": 2707,
      "{er": 2708,
      "x^{4}": 2709,
      "_{n+1}=": 2710,
      "x_{2})": 2711,
      "}{N": 2712,
      "AC": 2713,
      "2+": 2714,
      "\\Q": 2715,
      "t/": 2716,
      "I_{1}": 2717,
      "k_": 2718,
      "{se": 2719,
      "(6": 2720,
      "U=": 2721,
      "f(x,y)": 2722,
      "(a_{1},": 2723,
      "{-}": 2724,
      "B_{1}": 2725,
      "\\a": 2726,
      "|,": 2727,
      "{Ex": 2728,
      "{x},": 2729,
      "_{s})": 2730,
      "a}{": 2731,
      "}}))": 2732,
      "[G": 2733,
      "d(": 2734,
      "{13": 2735,
      "\\}\\}": 2736,
      "A^{-1}": 2737,
      "D(": 2738,
      "[m": 2739,
      "un": 2740,
      "[x,y": 2741,
      "+s": 2742,
      "_{0}{": 2743,
      "_{c}}": 2744,
      "B(": 2745,
      "b^{": 2746,
      "u_{2}": 2747,
      "_{i}(t)": 2748,
      "{1}{x": 2749,
      "\\varpi": 2750,
      "{u}{": 2751,
      "^{n},": 2752,
      "_{23}": 2753,
      "^{5}}{": 2754,
      "/3}": 2755,
      "{n}{2}}": 2756,
      "0&1\\\\": 2757,
      "5}+": 2758,
      ")}{2": 2759,
      "-k)": 2760,
      "-l": 2761,
      "m/": 2762,
      "10^{1": 2763,
      "(i,j": 2764,
      "CO": 2765,
      "f(x,": 2766,
      "f''": 2767,
      "}(A)": 2768,
      "-h": 2769,
      "_{k}+": 2770,
      "^{2}}}{": 2771,
      "(X_{1},": 2772,
      "\\\\[5pt]": 2773,
      "^{2}})": 2774,
      "lle": 2775,
      "y)=": 2776,
      "}}{{": 2777,
      "}=-{": 2778,
      "_{0}={": 2779,
      "}})}{": 2780,
      "wise": 2781,
      "^{3}}}}": 2782,
      "(c)": 2783,
      "\\at": 2784,
      "(x_{0},": 2785,
      "{and}": 2786,
      "\\atop": 2787,
      "D,": 2788,
      "k,": 2789,
      "F_{2}": 2790,
      "s_{2}": 2791,
      "t_{2}": 2792,
      "\\|f": 2793,
      "H^{1}": 2794,
      "}}n": 2795,
      "&0\\\\0&": 2796,
      ")&=": 2797,
      "P_{2}": 2798,
      "ok": 2799,
      "t}+": 2800,
      "(a+": 2801,
      "{out": 2802,
      "E}{": 2803,
      "otal": 2804,
      "\\|x": 2805,
      ":=\\{": 2806,
      "_{t}+": 2807,
      "{pmatrix}1&": 2808,
      "(t-": 2809,
      "M}{": 2810,
      "s_{i}": 2811,
      "_{n-2}": 2812,
      "\\;\\;\\;": 2813,
      "=\\,": 2814,
      "[Z": 2815,
      "_-": 2816,
      "_{3}^{": 2817,
      "_{n}|": 2818,
      "),\\": 2819,
      ")\\,d": 2820,
      "n+": 2821,
      "_{h}": 2822,
      "-C": 2823,
      "U}{": 2824,
      "}}){": 2825,
      "{sp": 2826,
      "}{dt^{2}}": 2827,
      "otherwise": 2828,
      "q_{1}": 2829,
      "(1-p)": 2830,
      "^{4}}}}": 2831,
      "t_{i}": 2832,
      "u^{2}": 2833,
      "^{-1}=": 2834,
      "(V)": 2835,
      "0{": 2836,
      "c,": 2837,
      "q^{": 2838,
      "{lo": 2839,
      "^{2}]": 2840,
      "}(S": 2841,
      "'+": 2842,
      "h}{": 2843,
      "{2m": 2844,
      "(B)": 2845,
      "h=": 2846,
      "-P": 2847,
      "z_{2}": 2848,
      "21": 2849,
      "{0}{": 2850,
      "-g": 2851,
      "E^{": 2852,
      "[g": 2853,
      "[L": 2854,
      "[M": 2855,
      "i}{": 2856,
      "\\{0\\}": 2857,
      "0.9": 2858,
      "1&0": 2859,
      "L_{1}": 2860,
      "N(": 2861,
      "}^{a}": 2862,
      "\\mp": 2863,
      "_{2,": 2864,
      "\\{0,1\\": 2865,
      "\\X": 2866,
      "76": 2867,
      "}(1+": 2868,
      "{L}{": 2869,
      "(s,": 2870,
      "(N)": 2871,
      "(0)}": 2872,
      "X_{n}": 2873,
      "x_{1}+": 2874,
      "\\csc": 2875,
      "^{2}+1": 2876,
      "_{n}={": 2877,
      "}}}}={": 2878,
      "aralle": 2879,
      "w=": 2880,
      "}})+": 2881,
      "_{r}}{": 2882,
      "^*)": 2883,
      "-6": 2884,
      "3\\\\": 2885,
      "74": 2886,
      "dt}": 2887,
      "k+1}": 2888,
      "p(x": 2889,
      "dx=": 2890,
      "B}}": 2891,
      "_{-1}": 2892,
      "^{-}": 2893,
      "\\|^{2}": 2894,
      "0=": 2895,
      "L^{": 2896,
      "Q(": 2897,
      "T}=": 2898,
      "_{D}": 2899,
      "1},": 2900,
      "{dv": 2901,
      "(p,": 2902,
      "{Var": 2903,
      "ent": 2904,
      "h_{1}": 2905,
      "(8": 2906,
      "F,": 2907,
      "z_{1}": 2908,
      "}}^{2}": 2909,
      "_{n=-": 2910,
      "-1}{2}}": 2911,
      "{(1-": 2912,
      "{du": 2913,
      "'}}": 2914,
      "R}{": 2915,
      "{L}_{": 2916,
      "_{m}^{": 2917,
      "]=0": 2918,
      "6}+": 2919,
      "C}{": 2920,
      "t}}{": 2921,
      "{bmatrix}}={": 2922,
      "G'": 2923,
      "10}": 2924,
      "ot}": 2925,
      "V^{": 2926,
      "he": 2927,
      "r,": 2928,
      "}{dt}}": 2929,
      "_{s}=": 2930,
      "_{ij})": 2931,
      "arallel": 2932,
      "H_{1}": 2933,
      "d{": 2934,
      "im}": 2935,
      "{E}_{": 2936,
      "}{n}}": 2937,
      "{smallmatrix}": 2938,
      "/N": 2939,
      "}{2}}{": 2940,
      "_{x},": 2941,
      "(R)": 2942,
      "&0\\\\": 2943,
      "U(": 2944,
      "f}}": 2945,
      "(J": 2946,
      "_{i}(x)": 2947,
      "^{k})": 2948,
      "-X": 2949,
      "B}{": 2950,
      "I_": 2951,
      "l}(": 2952,
      "s,": 2953,
      "~=": 2954,
      "{1-{": 2955,
      "0,\\": 2956,
      "{1}{2}}(": 2957,
      "_{5}": 2958,
      "OP": 2959,
      "W)": 2960,
      "]}}": 2961,
      "}^{0": 2962,
      "(x_{n})": 2963,
      "^{k}(": 2964,
      "I}{": 2965,
      "{20": 2966,
      "_{m}(": 2967,
      "^{k}}": 2968,
      "(1-2": 2969,
      "0,0,": 2970,
      "[a,b": 2971,
      "H^{": 2972,
      "_{jk}": 2973,
      "}(x_{1},": 2974,
      "_{x})": 2975,
      "x_{k}": 2976,
      "{(-1)": 2977,
      "I(": 2978,
      "{\\,": 2979,
      "93": 2980,
      "dv": 2981,
      "i=": 2982,
      "_{Y}": 2983,
      "{b}}": 2984,
      "{x^{2}": 2985,
      "\\,dx=": 2986,
      "B^{": 2987,
      "S_{1}": 2988,
      "\\parallel": 2989,
      "\\,ds": 2990,
      "\\\\&{": 2991,
      "f_": 2992,
      "f({": 2993,
      "(x-x": 2994,
      "6&": 2995,
      "W^{": 2996,
      "{1}{N": 2997,
      "{S}_{": 2998,
      "1.5": 2999,
      "):": 3000,
      "E}}": 3001,
      "-b)": 3002,
      "[p": 3003,
      "nk": 3004,
      "|H": 3005,
      "}(1": 3006,
      "d_{2}": 3007,
      "x{": 3008,
      "{f}(": 3009,
      "+u": 3010,
      "mi": 3011,
      "+y": 3012,
      ",n}": 3013,
      ":X": 3014,
      "_{n=1}^{N}": 3015,
      "{and}}": 3016,
      "_{n}(t)": 3017,
      "_{j+1}": 3018,
      "{E}(": 3019,
      "[1-": 3020,
      "_{1}),": 3021,
      "\\{a": 3022,
      "(k+1)": 3023,
      "{G}}": 3024,
      "11}": 3025,
      "N_{2}": 3026,
      "n+1}": 3027,
      "_{P}": 3028,
      "{R})": 3029,
      "=a": 3030,
      "p_{i}^{": 3031,
      "q}}": 3032,
      "1.0": 3033,
      "^{6}}{": 3034,
      "p^{2}": 3035,
      "_{K}": 3036,
      "^{t}": 3037,
      "}^{i}": 3038,
      "A_{n}": 3039,
      "b_{n}": 3040,
      "i{": 3041,
      "y})": 3042,
      "{25": 3043,
      "ith": 3044,
      "{O}(": 3045,
      "v,": 3046,
      "_{ik}": 3047,
      "{so": 3048,
      "'(t)": 3049,
      ")}(": 3050,
      "-K": 3051,
      "79": 3052,
      "A+": 3053,
      "[T": 3054,
      "bc": 3055,
      "x^": 3056,
      "\\;=": 3057,
      "(H)": 3058,
      "0}}{": 3059,
      "P(x)": 3060,
      "as": 3061,
      "ru": 3062,
      "\\bot": 3063,
      "_{p}^{": 3064,
      "]={": 3065,
      "c_{n}": 3066,
      "x<": 3067,
      "{n}{k}": 3068,
      "0^{": 3069,
      "E_{1}": 3070,
      "g^{-1}": 3071,
      "on}": 3072,
      "{bmatrix}.": 3073,
      "_{X}(": 3074,
      "-}": 3075,
      "q^{2}": 3076,
      "t}(": 3077,
      "_{e}=": 3078,
      "(y)=": 3079,
      "{18": 3080,
      "(n+": 3081,
      "{cl}": 3082,
      "dx^{2}}": 3083,
      "{M}}": 3084,
      "a^{3}": 3085,
      "y_{1},": 3086,
      "_{N})": 3087,
      "4\\\\": 3088,
      "te": 3089,
      ")&": 3090,
      "5^{": 3091,
      "Q}{": 3092,
      "{-1}{": 3093,
      "{2}{3}}": 3094,
      "e^{-j": 3095,
      "\\ho": 3096,
      "p_": 3097,
      "\\,(": 3098,
      "ol}": 3099,
      "m_": 3100,
      "/R": 3101,
      "h(x)": 3102,
      "u}}": 3103,
      ")=a": 3104,
      "+1}}}": 3105,
      "(k-1)": 3106,
      "g'": 3107,
      "{dia": 3108,
      "{d}t}": 3109,
      "(S)": 3110,
      "(x,y,z": 3111,
      "_{i=0}^{n}": 3112,
      "K_{1}": 3113,
      "q_{i}": 3114,
      "(w)": 3115,
      "E,": 3116,
      "e=": 3117,
      "x_{2}}": 3118,
      "~;": 3119,
      "(n))": 3120,
      "_{i=1}^{n}{": 3121,
      "I_{2}": 3122,
      "e_{2}": 3123,
      "x+1": 3124,
      "{otherwise": 3125,
      "{div": 3126,
      "_{ij}^{": 3127,
      "-F": 3128,
      "T_{1}": 3129,
      "^{x}": 3130,
      "{100": 3131,
      "_{t}}{": 3132,
      "{d}{dx": 3133,
      "+t": 3134,
      "g_{1}": 3135,
      "{C}}_{": 3136,
      "_{y},": 3137,
      ":\\": 3138,
      "A={": 3139,
      "z_{i}": 3140,
      "(A)=": 3141,
      "_{B})": 3142,
      "q_{2}": 3143,
      "r^{": 3144,
      "}_{3}": 3145,
      "_{m},": 3146,
      "T}})": 3147,
      "\\bigwedge": 3148,
      "\\!(": 3149,
      "[4]": 3150,
      "M}}": 3151,
      "R,": 3152,
      "a_{3}": 3153,
      "_{a}=": 3154,
      "a_{n": 3155,
      "t}}=": 3156,
      "_{5": 3157,
      "{3}{4": 3158,
      "}{p": 3159,
      "\\leslant": 3160,
      ")),": 3161,
      "{In": 3162,
      "-R": 3163,
      "U_{i}": 3164,
      "g}{": 3165,
      "{-1": 3166,
      "{1}{R": 3167,
      "_{p}}{": 3168,
      "_{c}}{": 3169,
      "2m": 3170,
      "[1": 3171,
      "\\{p": 3172,
      "um": 3173,
      "z^{n}": 3174,
      "X_{1},": 3175,
      "r_{i}": 3176,
      "x_{1}}": 3177,
      "(x^{2}": 3178,
      "{(-1)^{": 3179,
      "^{i}}": 3180,
      ",h": 3181,
      "s}(": 3182,
      "&1": 3183,
      "U^{": 3184,
      "dx}": 3185,
      "v_{0}": 3186,
      "x^{2})": 3187,
      "har": 3188,
      "^{2}+4": 3189,
      "[Y": 3190,
      "sta": 3191,
      "|G": 3192,
      "_{m}}{": 3193,
      "(0,1)": 3194,
      "1),": 3195,
      "N_{i}": 3196,
      ")=f(": 3197,
      "0.3": 3198,
      "k_{B}": 3199,
      "})^{1": 3200,
      "_{y})": 3201,
      "{dr": 3202,
      "_{A})": 3203,
      "{O}}": 3204,
      ",\\;": 3205,
      "F_": 3206,
      "q_{": 3207,
      "-S": 3208,
      "|P": 3209,
      "1=": 3210,
      "t'": 3211,
      "z)=": 3212,
      "(x'": 3213,
      "^{n}}}": 3214,
      "V_{2}": 3215,
      "a+": 3216,
      "b_{": 3217,
      "}/": 3218,
      "\\triangleq": 3219,
      "S^{1}": 3220,
      "pe": 3221,
      "_{j}+": 3222,
      "{cases}{": 3223,
      "\\hook": 3224,
      "y_{0}": 3225,
      "|r": 3226,
      "|f(x)": 3227,
      "-1}}}": 3228,
      "{cl": 3229,
      ",w)": 3230,
      "the": 3231,
      "{O}}(": 3232,
      "\\hookrightarrow": 3233,
      "v_{1},": 3234,
      "}}),": 3235,
      "(n)}{": 3236,
      "{A}}^{": 3237,
      "{v}_{": 3238,
      "_{31}": 3239,
      "f(n)": 3240,
      "g(x)=": 3241,
      "h_{2}": 3242,
      "x^{2}}}": 3243,
      "_{j,": 3244,
      "}{100": 3245,
      "_{r}(": 3246,
      ".6": 3247,
      "54": 3248,
      "f_{0}": 3249,
      "x))": 3250,
      "^{2}={": 3251,
      "_{0,": 3252,
      "|b": 3253,
      "|t": 3254,
      "_{x}}": 3255,
      "\\V": 3256,
      "c^{2}}}": 3257,
      "iz": 3258,
      "}}\\\\": 3259,
      "umb": 3260,
      "}}(t": 3261,
      "{tr}(": 3262,
      "}{dt}}=": 3263,
      "f(z)=": 3264,
      "v}}": 3265,
      "{1}{N}": 3266,
      "-1/2": 3267,
      "_{t}(": 3268,
      ":}": 3269,
      "V_{i}": 3270,
      "q,": 3271,
      "{(a": 3272,
      "{sg": 3273,
      "-D": 3274,
      "GM": 3275,
      "J=": 3276,
      "^{N}": 3277,
      "_{0})=": 3278,
      "53": 3279,
      "n-": 3280,
      ")^{4}": 3281,
      "{N}{": 3282,
      "8,": 3283,
      "V}}": 3284,
      "{14": 3285,
      "{H}}_{": 3286,
      "_{c})": 3287,
      "\\ker": 3288,
      "{array}{c": 3289,
      "(U)": 3290,
      ",e": 3291,
      "to": 3292,
      "w_{1}": 3293,
      ")^{T}": 3294,
      "{a+b": 3295,
      "{B}}_{": 3296,
      "\\\\[4": 3297,
      "-t)": 3298,
      "L_{2}": 3299,
      "0000}{": 3300,
      "{ab": 3301,
      "_{x}^{": 3302,
      "x+b": 3303,
      "-7": 3304,
      ".&": 3305,
      "{(1": 3306,
      "|k": 3307,
      "}}(X": 3308,
      "x^{4}+": 3309,
      "(r)=": 3310,
      "/(2": 3311,
      "2\\": 3312,
      "C_": 3313,
      "H}{": 3314,
      "|s": 3315,
      "}-{": 3316,
      "2}+": 3317,
      "{H}_{": 3318,
      "/I": 3319,
      "73": 3320,
      "}}{dt}": 3321,
      "E_{2}": 3322,
      "{1}{a": 3323,
      "{id}": 3324,
      "->": 3325,
      "X_{2},": 3326,
      "[B": 3327,
      "\\C": 3328,
      "_{1}&": 3329,
      "_{e}}{": 3330,
      "f'(x)": 3331,
      "z,": 3332,
      "}){": 3333,
      "or}": 3334,
      "_{x}^{2}": 3335,
      "\\hline": 3336,
      "}(z)=": 3337,
      "~=~": 3338,
      "{55": 3339,
      "{0.": 3340,
      "{19": 3341,
      "{3}}{": 3342,
      "{F}}_{": 3343,
      "a'": 3344,
      "l}{": 3345,
      "0),": 3346,
      "y^{2}+": 3347,
      "(n_{1},": 3348,
      "_{m=0}^{": 3349,
      "\\upsilon": 3350,
      "10^{-1": 3351,
      "1)}": 3352,
      "S_{n}": 3353,
      "T,": 3354,
      "ter": 3355,
      "x_{i}^{": 3356,
      "{1000000": 3357,
      "{R}_{": 3358,
      "{A}{": 3359,
      "_{xx": 3360,
      "{D}}_{": 3361,
      "{5}": 3362,
      "~;~~": 3363,
      "N_{1}": 3364,
      "[0": 3365,
      "_{U": 3366,
      "})}}": 3367,
      "{36": 3368,
      ",m)": 3369,
      "{Spec}": 3370,
      "S}}": 3371,
      "]_{": 3372,
      "ace": 3373,
      "t-": 3374,
      "\\\\[4pt]": 3375,
      "'|": 3376,
      "n(": 3377,
      "}}{(": 3378,
      "{R}^{n}": 3379,
      "{r}_{": 3380,
      "^{k-1}": 3381,
      "[}{": 3382,
      "i,": 3383,
      "_{n=": 3384,
      "-1.": 3385,
      ")^{k}": 3386,
      "&c": 3387,
      "')=": 3388,
      "w_{2}": 3389,
      "}^{4": 3390,
      "}-2": 3391,
      "(t+": 3392,
      "{2}{3}": 3393,
      "(P)": 3394,
      ">1": 3395,
      "K_": 3396,
      "M_{1}": 3397,
      "Re": 3398,
      "]^{2}": 3399,
      "{End": 3400,
      "}{1000000": 3401,
      "g_{2}": 3402,
      "ree": 3403,
      "x_{i})": 3404,
      "})^{-1}": 3405,
      "^{1},": 3406,
      "_{4},": 3407,
      "(h)": 3408,
      "(7": 3409,
      "_{33}": 3410,
      "(1-t)": 3411,
      "^{7}}{": 3412,
      "(x_{1},x_{2},": 3413,
      "2^{n}": 3414,
      "c(": 3415,
      "x={": 3416,
      "}{16": 3417,
      "(x,y,z)": 3418,
      "/r": 3419,
      "x]": 3420,
      "})_{": 3421,
      "{1}{N}}": 3422,
      "e^{t": 3423,
      "1&0&0&": 3424,
      "X_{t}": 3425,
      "_{i}})": 3426,
      "(1-x)": 3427,
      "(3,": 3428,
      "=|": 3429,
      "_{G}": 3430,
      "_{i=1}": 3431,
      "ment": 3432,
      "f(a)": 3433,
      "_{A}}{": 3434,
      "{out}": 3435,
      "{smallmatrix}}": 3436,
      ",}": 3437,
      "ea": 3438,
      "p_{n}": 3439,
      "^{n}+": 3440,
      "n}=": 3441,
      "(x\\": 3442,
      "CD": 3443,
      "{ex": 3444,
      "}(M)": 3445,
      "})={": 3446,
      "{1}{x}": 3447,
      "}(t,": 3448,
      "]/": 3449,
      "a_{j}": 3450,
      "p_{k}": 3451,
      "x/": 3452,
      "}})}}": 3453,
      ">0,": 3454,
      "},\\,": 3455,
      "x^{k}": 3456,
      "(u,": 3457,
      ")d": 3458,
      "P_{i}": 3459,
      "{66": 3460,
      "}d": 3461,
      ")^{1/2}": 3462,
      "{v^{2}}{": 3463,
      ")).": 3464,
      "(s)}": 3465,
      "(-2": 3466,
      "}{{": 3467,
      "+1)=": 3468,
      "M^{": 3469,
      "dq": 3470,
      "u(": 3471,
      "^{.": 3472,
      "_{j}{": 3473,
      "^{2}}.": 3474,
      "umber": 3475,
      ",B": 3476,
      "{d^{2}}{": 3477,
      "{1}{2}(": 3478,
      "1\\,": 3479,
      "83": 3480,
      "9)": 3481,
      "et}": 3482,
      "k+": 3483,
      "k}}{": 3484,
      "}^{3": 3485,
      "f(y": 3486,
      "\\mathtt": 3487,
      "1})": 3488,
      "alu": 3489,
      "{1}{8": 3490,
      "ed}": 3491,
      "}_{t}": 3492,
      "{x^{2}}{": 3493,
      "{arc": 3494,
      "\\supseteq": 3495,
      "1}}}": 3496,
      "=3": 3497,
      "[f]": 3498,
      "..": 3499,
      "5\\\\": 3500,
      "H^{2}": 3501,
      "con": 3502,
      "f.": 3503,
      "}x": 3504,
      "_{Z": 3505,
      "\\{y": 3506,
      "{GL}": 3507,
      "(-1)^{n}": 3508,
      ")^{n}": 3509,
      "B'": 3510,
      "_{n}{": 3511,
      ".}}": 3512,
      "A'": 3513,
      "R_{0}": 3514,
      "[1,": 3515,
      "]-": 3516,
      "g:": 3517,
      "rec": 3518,
      "^{2n}": 3519,
      "_{AB": 3520,
      "5&": 3521,
      "E_{i}": 3522,
      "mg": 3523,
      "^{2}.": 3524,
      "_{j}|": 3525,
      "(Y)": 3526,
      "_{j=1}^{N}": 3527,
      "+6": 3528,
      "R_{i}": 3529,
      "n-1": 3530,
      "{77": 3531,
      "(x-1)": 3532,
      "}}}-{": 3533,
      "{27": 3534,
      "|A|": 3535,
      "-0.": 3536,
      "y}}{": 3537,
      "}(u": 3538,
      "_{1}})": 3539,
      "99}{": 3540,
      "\\texttt": 3541,
      "}}=1": 3542,
      "(X)=": 3543,
      "tion": 3544,
      "(x)+": 3545,
      "{bmatrix}a": 3546,
      "f(x_{1},": 3547,
      "^{0}(": 3548,
      "E={": 3549,
      "{6666": 3550,
      "_{k,": 3551,
      "(u)=": 3552,
      "\\\\0": 3553,
      "+1})": 3554,
      ")^{4": 3555,
      "(z)}{": 3556,
      "{t}}": 3557,
      "_{4}=": 3558,
      "=x": 3559,
      "L}(": 3560,
      "M(": 3561,
      "][": 3562,
      "st}": 3563,
      "{A}_{": 3564,
      "[x_{1},": 3565,
      "[F": 3566,
      "}}~": 3567,
      "_{k=0}^": 3568,
      "{dV": 3569,
      "{X}_{": 3570,
      "^{4})": 3571,
      "^{5}}": 3572,
      "d_{i}": 3573,
      "h^{": 3574,
      "r'": 3575,
      "r(": 3576,
      "z}}{": 3577,
      "(t)={": 3578,
      "*}(": 3579,
      ";q": 3580,
      "_{ji}": 3581,
      "E_{0}": 3582,
      "{8888": 3583,
      "^{3/2}": 3584,
      "^{2})^{2}": 3585,
      ";{": 3586,
      "Y_{i}": 3587,
      "\\,}": 3588,
      "^{1-": 3589,
      "S_{2}": 3590,
      "v'": 3591,
      "{A})": 3592,
      "_{A}=": 3593,
      "^{+^{+": 3594,
      "q(x)": 3595,
      "{(1+": 3596,
      "|T": 3597,
      "|d": 3598,
      "2}^{": 3599,
      "(x_{1})": 3600,
      "{pmatrix}0&": 3601,
      "{r}{": 3602,
      "(C)": 3603,
      "/10": 3604,
      "{9999": 3605,
      "{R}{": 3606,
      "{a^{2}": 3607,
      ")}}{": 3608,
      "T}(": 3609,
      "p_{0}": 3610,
      "y}=": 3611,
      "y''": 3612,
      "2}=": 3613,
      "^{-{": 3614,
      "{P}{": 3615,
      "{sin": 3616,
      "/8": 3617,
      "q}{": 3618,
      "}=({": 3619,
      "^{20": 3620,
      "&x": 3621,
      "{me": 3622,
      "{7777": 3623,
      "}~": 3624,
      "_{k=": 3625,
      "}}=2": 3626,
      "_{A}(": 3627,
      "^{p}(": 3628,
      "2O": 3629,
      "3{": 3630,
      "y_{n}": 3631,
      "|g": 3632,
      "1}+": 3633,
      "}^{t}": 3634,
      "}{12": 3635,
      "'-": 3636,
      "C_{i}": 3637,
      "U_{1}": 3638,
      "06": 3639,
      "f_{X": 3640,
      "{3333": 3641,
      "{1}{6": 3642,
      "_{k}}}": 3643,
      "\\gcd": 3644,
      "_{1}}(": 3645,
      "11}{": 3646,
      "(P,": 3647,
      "^{7^{7": 3648,
      "\\Xi": 3649,
      "n.": 3650,
      "|\\": 3651,
      "{m_{": 3652,
      "_{10}(": 3653,
      "-9": 3654,
      "I,": 3655,
      "N,": 3656,
      "at}": 3657,
      "|-": 3658,
      "(x+1)": 3659,
      "\\Re": 3660,
      "{array}{cc": 3661,
      "(L)": 3662,
      "}e^{-": 3663,
      "\\,=\\,": 3664,
      "{22": 3665,
      "{bmatrix}0&": 3666,
      "^{3}=": 3667,
      "x^{i}": 3668,
      "}}{1+": 3669,
      "(F)": 3670,
      "/5": 3671,
      "S_{i}": 3672,
      "d^{4}": 3673,
      "y^{2}=": 3674,
      "|^{": 3675,
      "}{b": 3676,
      "{1}{m": 3677,
      "/2,": 3678,
      "{Y}}": 3679,
      "{bmatrix}{": 3680,
      "[{3}": 3681,
      "_{4})": 3682,
      "G_{2}": 3683,
      "\\;1": 3684,
      "(j)": 3685,
      "B)=": 3686,
      "{-2": 3687,
      "}(k)": 3688,
      "}^{a": 3689,
      "1,1,": 3690,
      "an}": 3691,
      "q(": 3692,
      "{4444": 3693,
      "_{i}}}}": 3694,
      "0.1": 3695,
      "_{B}}{": 3696,
      ",Z": 3697,
      "sup": 3698,
      "x)}{": 3699,
      "^{N": 3700,
      "}{18": 3701,
      "{GM": 3702,
      "&=0": 3703,
      "=4": 3704,
      "p,q": 3705,
      "v_{j}": 3706,
      "_{u}": 3707,
      "^{2}({": 3708,
      "{dP": 3709,
      "{28": 3710,
      "(X;": 3711,
      "(M,": 3712,
      "ik": 3713,
      "y(t)": 3714,
      "^{2}-2": 3715,
      "_{4}}{": 3716,
      "sp": 3717,
      "und": 3718,
      "z})": 3719,
      "}}&{": 3720,
      "^{2}\\,": 3721,
      "^{2}}}={": 3722,
      "{bmatrix}1": 3723,
      "{n+1": 3724,
      "_{f}}": 3725,
      "2k": 3726,
      "A_{0}": 3727,
      "_{\\{": 3728,
      "}(0,": 3729,
      "_{t_{0}}^{": 3730,
      "{arg": 3731,
      "[u": 3732,
      "v^{": 3733,
      "}(-": 3734,
      "^{2}}=": 3735,
      "A^": 3736,
      "ti": 3737,
      "x(": 3738,
      "^{-n}": 3739,
      "-w": 3740,
      ";q)": 3741,
      "MP": 3742,
      "\\I": 3743,
      "p-1}": 3744,
      "r}=": 3745,
      "}{8": 3746,
      "_{2}&": 3747,
      "{V}}": 3748,
      "(u,v)": 3749,
      "(f(": 3750,
      "m}}{": 3751,
      "t_{0}": 3752,
      "_{H}": 3753,
      "_{k}{": 3754,
      "{dt": 3755,
      "{var}": 3756,
      "(p-1)": 3757,
      "{4}{3}": 3758,
      "B|": 3759,
      "x_{n": 3760,
      "})=0": 3761,
      "{11111": 3762,
      "}^{m}": 3763,
      "_{ijk}": 3764,
      "c_{0}": 3765,
      "neq": 3766,
      "{=": 3767,
      "_{W": 3768,
      "}{4}": 3769,
      "{d}}{": 3770,
      "{Cl}": 3771,
      "(k,": 3772,
      "ix": 3773,
      "s}}{": 3774,
      "\\{0": 3775,
      "-3)": 3776,
      "\\{0,1\\}": 3777,
      "n}}{": 3778,
      "{1+{": 3779,
      "}}}}}}": 3780,
      "_{B}}": 3781,
      "05": 3782,
      "{6}": 3783,
      "{22222": 3784,
      "{f}}(": 3785,
      "_{e}}": 3786,
      "x+y": 3787,
      "n+1": 3788,
      "(2n+1)": 3789,
      "I_{0}": 3790,
      "S_": 3791,
      "m-1}": 3792,
      "{x},t)": 3793,
      "[X,Y": 3794,
      "f,g": 3795,
      "F_{n}": 3796,
      "G/": 3797,
      "v(": 3798,
      "_{1}^{2}+": 3799,
      "H_{0}": 3800,
      "g(t)": 3801,
      "u+": 3802,
      "^{b}": 3803,
      "}{=": 3804,
      "}}{dt": 3805,
      "_{i}-{": 3806,
      "}{10}": 3807,
      "{C}{": 3808,
      "(y,": 3809,
      "_{-}": 3810,
      "000}}{": 3811,
      ".2": 3812,
      "[1+": 3813,
      "b}=": 3814,
      "kT": 3815,
      "p\\": 3816,
      "_{6": 3817,
      "^{2}},": 3818,
      "\\;=\\;": 3819,
      "3}+": 3820,
      "\\w": 3821,
      "d}{": 3822,
      "\\\\1&": 3823,
      "{d}x": 3824,
      "_{y}=": 3825,
      ",Y)": 3826,
      "{d}{dt}}": 3827,
      "W_{t}": 3828,
      "Z_{0}": 3829,
      "b_{1},": 3830,
      "_{a}}": 3831,
      "{q}{": 3832,
      "ew": 3833,
      "u(x)": 3834,
      "ut}}": 3835,
      "\\!{": 3836,
      "{def}": 3837,
      ":x": 3838,
      "D_": 3839,
      "L_": 3840,
      "}{6": 3841,
      "_{n}(x)=": 3842,
      "-1\\}": 3843,
      "\\overrightarrow": 3844,
      ")}{d": 3845,
      "_{m-1}": 3846,
      "{CH}": 3847,
      "{Z}}": 3848,
      "{w}}": 3849,
      "::": 3850,
      "R={": 3851,
      "r^{3}": 3852,
      "_{k=1}^": 3853,
      "}})]": 3854,
      "_{s}(": 3855,
      "f(x;": 3856,
      "5}-": 3857,
      "86": 3858,
      "M_": 3859,
      "ran": 3860,
      "{n})": 3861,
      "^{2}+(": 3862,
      "_{a})": 3863,
      "(y_{1},": 3864,
      "L^{2}(": 3865,
      "Q(x)": 3866,
      "h^{2}": 3867,
      "j}}": 3868,
      "}+x^{": 3869,
      "{p})": 3870,
      "{x}}_{": 3871,
      "_{k}|": 3872,
      "x^{i": 3873,
      "{Li": 3874,
      "[{t}]{2}}{": 3875,
      "I_{n}": 3876,
      "ear": 3877,
      "with": 3878,
      "{5555": 3879,
      "1}=": 3880,
      "\\,p": 3881,
      "}^{4}": 3882,
      "}_{x}": 3883,
      "_{ijk": 3884,
      "I-": 3885,
      "K^{": 3886,
      "b_{0}": 3887,
      "e^": 3888,
      "{L}}{": 3889,
      "{2}}}": 3890,
      "_{b}}{": 3891,
      "_{d})": 3892,
      "(4)": 3893,
      "{int}": 3894,
      "M_{i}": 3895,
      "[C": 3896,
      "g_{i}": 3897,
      "u_{j}": 3898,
      "log": 3899,
      "^{2}}{n": 3900,
      "(t)+": 3901,
      "_{p},": 3902,
      "f(x))": 3903,
      "\\,dz": 3904,
      "^{i})": 3905,
      "G_{1}": 3906,
      "P_{0}": 3907,
      "r={": 3908,
      "t}}+": 3909,
      "x_{i}=": 3910,
      "{df": 3911,
      "+9": 3912,
      "r_": 3913,
      "t},": 3914,
      "_{i}}^{": 3915,
      "55}": 3916,
      "_{k}\\}": 3917,
      "&C": 3918,
      "=-{": 3919,
      "T_{2}": 3920,
      "}(v": 3921,
      "}}}\\": 3922,
      "4{": 3923,
      "7})": 3924,
      "Co": 3925,
      "W(": 3926,
      "l)": 3927,
      "\\,x": 3928,
      "\\subsetneq": 3929,
      "-m)": 3930,
      "1000": 3931,
      "B_{2}": 3932,
      "2},": 3933,
      ")^{k": 3934,
      "{h}{": 3935,
      ">0}": 3936,
      "c}(": 3937,
      "{88": 3938,
      "_{k}(x)": 3939,
      "\\{X": 3940,
      "_{f}=": 3941,
      "e^{ik": 3942,
      "_{n-1})": 3943,
      "II": 3944,
      "}a": 3945,
      "_{i}(X": 3946,
      "/2}{": 3947,
      "{N}}(": 3948,
      ".3": 3949,
      "92": 3950,
      "H}}": 3951,
      "L,": 3952,
      "k_{i}": 3953,
      "y.": 3954,
      "x}+": 3955,
      "{dS": 3956,
      "e^{e^{": 3957,
      "(X_{1}": 3958,
      "_{f}(": 3959,
      "(x-y)": 3960,
      "[k]": 3961,
      "&2": 3962,
      "+8": 3963,
      "9,": 3964,
      "O_{2}": 3965,
      "W}{": 3966,
      "}{11": 3967,
      "}(-1)^{": 3968,
      "_{jk": 3969,
      "ds}": 3970,
      "^{*}}": 3971,
      "{ad}": 3972,
      "+1}=": 3973,
      "\\|x\\|": 3974,
      "+|": 3975,
      "4})": 3976,
      "CH": 3977,
      "V_{0}": 3978,
      "\\}^{": 3979,
      "m'": 3980,
      "{}{": 3981,
      "\\\\&&": 3982,
      "{2k": 3983,
      "(n-2)": 3984,
      "}{d}": 3985,
      "22}}": 3986,
      "\\A": 3987,
      "u_{x}": 3988,
      "^{2})}": 3989,
      "{111": 3990,
      "{u}_{": 3991,
      "\\,dx={": 3992,
      "F:": 3993,
      "K_{2}": 3994,
      "[q": 3995,
      "{ma": 3996,
      "}})({": 3997,
      "f(x_{0})": 3998,
      "(a+b)": 3999
    },
    "merges": [
      [
        "_",
        "{"
      ],
      [
        "}",
        "}"
      ],
      [
        "^",
        "{"
      ],
      [
        "r",
        "a"
      ],
      [
        "f",
        "ra"
      ],
      [
        "fra",
        "c"
      ],
      [
        "\\",
        "frac"
      ],
      [
        "m",
        "a"
      ],
      [
        "}",
        "{"
      ],
      [
        "ma",
        "t"
      ],
      [
        "2",
        "}"
      ],
      [
        "i",
        "n"
      ],
      [
        "mat",
        "h"
      ],
      [
        "\\",
        "math"
      ],
      [
        "\\",
        "t"
      ],
      [
        "\\",
        "s"
      ],
      [
        "1",
        "}"
      ],
      [
        "\\",
        "p"
      ],
      [
        "a",
        "l"
      ],
      [
        "t",
        "a"
      ],
      [
        "r",
        "t"
      ],
      [
        "o",
        "t"
      ],
      [
        "\\",
        "b"
      ],
      [
        "\\math",
        "b"
      ],
      [
        "_{",
        "i"
      ],
      [
        "\\",
        "c"
      ],
      [
        "^{",
        "2}"
      ],
      [
        "d",
        "ot"
      ],
      [
        "\\",
        "l"
      ],
      [
        "m",
        "e"
      ],
      [
        "\\",
        "in"
      ],
      [
        "}",
        "("
      ],
      [
        "}",
        ")"
      ],
      [
        "{",
        "1"
      ],
      [
        "\\",
        "o"
      ],
      [
        "}}",
        "{"
      ],
      [
        "\\mathb",
        "f"
      ],
      [
        "_{",
        "1}"
      ],
      [
        "e",
        "ta"
      ],
      [
        "i",
        "g"
      ],
      [
        "h",
        "a"
      ],
      [
        "e",
        "x"
      ],
      [
        "\\",
        ","
      ],
      [
        "}",
        "="
      ],
      [
        "}",
        "^{"
      ],
      [
        "a",
        "m"
      ],
      [
        "ex",
        "t"
      ],
      [
        "\\t",
        "ext"
      ],
      [
        "_{",
        "n"
      ],
      [
        "\\c",
        "dot"
      ],
      [
        "0",
        "0"
      ],
      [
        "x",
        "}"
      ],
      [
        "2",
        "}}"
      ],
      [
        "(",
        "x"
      ],
      [
        "\\s",
        "q"
      ],
      [
        "\\sq",
        "rt"
      ],
      [
        "_{",
        "0"
      ],
      [
        "a",
        "r"
      ],
      [
        "a",
        "rt"
      ],
      [
        "_{",
        "2}"
      ],
      [
        "r",
        "m"
      ],
      [
        "i",
        "al"
      ],
      [
        "art",
        "ial"
      ],
      [
        "\\p",
        "artial"
      ],
      [
        ")",
        "="
      ],
      [
        "\\",
        "e"
      ],
      [
        "{1",
        "}{"
      ],
      [
        "l",
        "e"
      ],
      [
        "\\s",
        "u"
      ],
      [
        "\\",
        "m"
      ],
      [
        "\\",
        "v"
      ],
      [
        "h",
        "i"
      ],
      [
        "r",
        "i"
      ],
      [
        "p",
        "ha"
      ],
      [
        "\\",
        "al"
      ],
      [
        "\\math",
        "rm"
      ],
      [
        "\\al",
        "pha"
      ],
      [
        "e",
        "r"
      ],
      [
        "mat",
        "ri"
      ],
      [
        "s",
        "i"
      ],
      [
        "\\",
        "\\"
      ],
      [
        "t",
        "y"
      ],
      [
        "\\su",
        "m"
      ],
      [
        "_{i",
        "}"
      ],
      [
        "n",
        "d"
      ],
      [
        "n",
        "a"
      ],
      [
        "o",
        "r"
      ],
      [
        "n",
        "g"
      ],
      [
        "\\p",
        "i"
      ],
      [
        "-",
        "1"
      ],
      [
        "e",
        "l"
      ],
      [
        "d",
        "a"
      ],
      [
        "h",
        "eta"
      ],
      [
        "\\",
        "dot"
      ],
      [
        "e",
        "g"
      ],
      [
        "_{",
        "k"
      ],
      [
        "el",
        "ta"
      ],
      [
        "{",
        "d"
      ],
      [
        "\\t",
        "heta"
      ],
      [
        "\\m",
        "u"
      ],
      [
        "g",
        "a"
      ],
      [
        "\\t",
        "i"
      ],
      [
        "ng",
        "le"
      ],
      [
        "me",
        "ga"
      ],
      [
        "matri",
        "x}"
      ],
      [
        "ig",
        "ma"
      ],
      [
        "\\in",
        "t"
      ],
      [
        "am",
        "b"
      ],
      [
        "amb",
        "da"
      ],
      [
        "^{",
        "-"
      ],
      [
        "\\o",
        "p"
      ],
      [
        "\\t",
        "o"
      ],
      [
        "\\",
        "g"
      ],
      [
        "}",
        ","
      ],
      [
        "eg",
        "in"
      ],
      [
        "\\b",
        "egin"
      ],
      [
        "\\e",
        "nd"
      ],
      [
        "_{",
        "j"
      ],
      [
        "am",
        "ma"
      ],
      [
        "ra",
        "t"
      ],
      [
        "\\l",
        "ambda"
      ],
      [
        "\\s",
        "igma"
      ],
      [
        "me",
        "s"
      ],
      [
        "e",
        "rat"
      ],
      [
        "na",
        "me"
      ],
      [
        "erat",
        "or"
      ],
      [
        "\\op",
        "erator"
      ],
      [
        "\\operator",
        "name"
      ],
      [
        "\\v",
        "ar"
      ],
      [
        "v",
        "er"
      ],
      [
        "\\dot",
        "s"
      ],
      [
        "r",
        "o"
      ],
      [
        "^{",
        "n"
      ],
      [
        "\\o",
        "ver"
      ],
      [
        "}",
        "+"
      ],
      [
        "{",
        "b"
      ],
      [
        "(",
        "1"
      ],
      [
        "l",
        "o"
      ],
      [
        "^{",
        "2}}"
      ],
      [
        "o",
        "l"
      ],
      [
        "{",
        "p"
      ],
      [
        "t",
        ")"
      ],
      [
        "\\",
        "n"
      ],
      [
        "\\in",
        "f"
      ],
      [
        "ha",
        "t"
      ],
      [
        "\\",
        "hat"
      ],
      [
        "\\b",
        "eta"
      ],
      [
        "\\inf",
        "ty"
      ],
      [
        "=",
        "{"
      ],
      [
        "q",
        "u"
      ],
      [
        "3",
        "}"
      ],
      [
        "\\",
        "r"
      ],
      [
        "\\mathb",
        "b"
      ],
      [
        "\\",
        "d"
      ],
      [
        "\\",
        "{"
      ],
      [
        "\\o",
        "mega"
      ],
      [
        "(x",
        ")"
      ],
      [
        "}}",
        "}"
      ],
      [
        "\\l",
        "e"
      ],
      [
        "_{",
        "1"
      ],
      [
        "t",
        "}"
      ],
      [
        "h",
        "o"
      ],
      [
        "c",
        "al"
      ],
      [
        "{",
        "2"
      ],
      [
        "^{",
        "2"
      ],
      [
        "\\math",
        "cal"
      ],
      [
        "1",
        "1"
      ],
      [
        "3",
        "3"
      ],
      [
        "\\r",
        "ho"
      ],
      [
        "lo",
        "n"
      ],
      [
        "p",
        "si"
      ],
      [
        "psi",
        "lon"
      ],
      [
        "4",
        "4"
      ],
      [
        "\\ti",
        "mes"
      ],
      [
        "e",
        "d"
      ],
      [
        "9",
        "9"
      ],
      [
        ")",
        "}"
      ],
      [
        "\\g",
        "amma"
      ],
      [
        "a",
        "d"
      ],
      [
        "6",
        "6"
      ],
      [
        "5",
        "5"
      ],
      [
        "7",
        "7"
      ],
      [
        "(",
        "{"
      ],
      [
        "\\p",
        "hi"
      ],
      [
        "8",
        "8"
      ],
      [
        "+",
        "1"
      ],
      [
        "\\",
        "}"
      ],
      [
        "_{0",
        "}"
      ],
      [
        "-",
        "1}"
      ],
      [
        "2",
        "2"
      ],
      [
        "\\t",
        "a"
      ],
      [
        "=",
        "1}"
      ],
      [
        "\\",
        "ra"
      ],
      [
        "\\ra",
        "ngle"
      ],
      [
        "}}",
        ")"
      ],
      [
        "\\c",
        "o"
      ],
      [
        "\\",
        "D"
      ],
      [
        "qu",
        "ad"
      ],
      [
        "\\D",
        "elta"
      ],
      [
        "a",
        "p"
      ],
      [
        "=",
        "0"
      ],
      [
        "00",
        "00"
      ],
      [
        "_{1}",
        ","
      ],
      [
        "_{n",
        "}"
      ],
      [
        "in",
        "e"
      ],
      [
        "\\s",
        "in"
      ],
      [
        "l",
        "ine"
      ],
      [
        "{",
        "R"
      ],
      [
        "(",
        "n"
      ],
      [
        "\\co",
        "s"
      ],
      [
        "\\d",
        "elta"
      ],
      [
        "{b",
        "matrix}"
      ],
      [
        "}",
        "_{"
      ],
      [
        "-",
        "{"
      ],
      [
        "o",
        "m"
      ],
      [
        "s",
        "e"
      ],
      [
        "\\var",
        "p"
      ],
      [
        "\\p",
        "si"
      ],
      [
        "\\ta",
        "u"
      ],
      [
        "\\b",
        "ig"
      ],
      [
        "\\n",
        "u"
      ],
      [
        "{",
        "x"
      ],
      [
        "f",
        "("
      ],
      [
        "\\varp",
        "hi"
      ],
      [
        "{",
        "A"
      ],
      [
        "d",
        "s"
      ],
      [
        "\\l",
        "o"
      ],
      [
        "{",
        "n"
      ],
      [
        "\\",
        "P"
      ],
      [
        "r",
        "}"
      ],
      [
        ")",
        "^{"
      ],
      [
        "\\",
        ";"
      ],
      [
        "e",
        "^{"
      ],
      [
        "l",
        "a"
      ],
      [
        "{",
        "a"
      ],
      [
        "{",
        "c"
      ],
      [
        "a",
        "ngle"
      ],
      [
        "0",
        "."
      ],
      [
        "d",
        "e"
      ],
      [
        "^{n",
        "}"
      ],
      [
        "e",
        "c"
      ],
      [
        "i",
        "m"
      ],
      [
        "d",
        "x"
      ],
      [
        ")",
        "}{"
      ],
      [
        "\\lo",
        "g"
      ],
      [
        "s",
        "ty"
      ],
      [
        "sty",
        "le"
      ],
      [
        "0",
        ","
      ],
      [
        "\\cdot",
        "s"
      ],
      [
        "k",
        "}"
      ],
      [
        "ap",
        "p"
      ],
      [
        "l",
        "l"
      ],
      [
        "\\over",
        "line"
      ],
      [
        "\\",
        "quad"
      ],
      [
        "_{",
        "m"
      ],
      [
        "^{2",
        "}}{"
      ],
      [
        "}(",
        "x"
      ],
      [
        "^{2}",
        "+"
      ],
      [
        "^{-",
        "1}"
      ],
      [
        "l",
        "de"
      ],
      [
        "\\ti",
        "lde"
      ],
      [
        "0",
        "&"
      ],
      [
        "m",
        "b"
      ],
      [
        "e",
        "psilon"
      ],
      [
        "\\var",
        "epsilon"
      ],
      [
        "ig",
        "n"
      ],
      [
        "(",
        "2"
      ],
      [
        "4",
        "}"
      ],
      [
        "\\l",
        "angle"
      ],
      [
        "\\b",
        "ol"
      ],
      [
        "{",
        "al"
      ],
      [
        "{",
        "3"
      ],
      [
        "y",
        "mb"
      ],
      [
        "ymb",
        "ol"
      ],
      [
        "{al",
        "ign"
      ],
      [
        "(",
        "t)"
      ],
      [
        "ds",
        "ymbol"
      ],
      [
        "\\bol",
        "dsymbol"
      ],
      [
        "{",
        "v"
      ],
      [
        "_{",
        "t"
      ],
      [
        "_{",
        "p"
      ],
      [
        "{align",
        "ed"
      ],
      [
        ")",
        ")"
      ],
      [
        "+",
        "1}"
      ],
      [
        "{",
        "E"
      ],
      [
        "in",
        "om"
      ],
      [
        "\\b",
        "inom"
      ],
      [
        "{",
        "B"
      ],
      [
        "(",
        "a"
      ],
      [
        "{p",
        "matrix}"
      ],
      [
        "}}",
        "="
      ],
      [
        "}{",
        "1"
      ],
      [
        "n",
        "}"
      ],
      [
        "}{",
        "d"
      ],
      [
        "}}",
        "_{"
      ],
      [
        "+",
        "{"
      ],
      [
        "{",
        "C"
      ],
      [
        "}}",
        "("
      ],
      [
        "T",
        "}"
      ],
      [
        "\\v",
        "ec"
      ],
      [
        "=1}",
        "^{"
      ],
      [
        "{",
        "P"
      ],
      [
        ")",
        ","
      ],
      [
        "^{",
        "3"
      ],
      [
        "\\g",
        "e"
      ],
      [
        "}",
        "-"
      ],
      [
        "\\",
        "|"
      ],
      [
        "_{",
        "x"
      ],
      [
        "e",
        "^{-"
      ],
      [
        "\\b",
        "ar"
      ],
      [
        "_{",
        "a"
      ],
      [
        "ro",
        "w"
      ],
      [
        "b",
        "la"
      ],
      [
        "ta",
        "r"
      ],
      [
        "\\",
        "na"
      ],
      [
        "\\na",
        "bla"
      ],
      [
        "0",
        "}"
      ],
      [
        "\\",
        "!"
      ],
      [
        "_{k",
        "}"
      ],
      [
        "}=",
        "{"
      ],
      [
        "_{",
        "3"
      ],
      [
        "G",
        "amma"
      ],
      [
        "_{j",
        "}"
      ],
      [
        "(",
        "X"
      ],
      [
        "se",
        "t"
      ],
      [
        "\\",
        "Gamma"
      ],
      [
        "y",
        ")"
      ],
      [
        "{",
        "S"
      ],
      [
        "_{",
        "2"
      ],
      [
        "\\",
        "O"
      ],
      [
        "s",
        "}"
      ],
      [
        "\\O",
        "mega"
      ],
      [
        "\\l",
        "n"
      ],
      [
        "&",
        "="
      ],
      [
        "{",
        "x}"
      ],
      [
        "\\",
        "eta"
      ],
      [
        "-",
        "2"
      ],
      [
        "{d",
        "}"
      ],
      [
        "1",
        "0"
      ],
      [
        "}}",
        "^{"
      ],
      [
        "\\p",
        "ro"
      ],
      [
        "{",
        "m"
      ],
      [
        "(x",
        ","
      ],
      [
        "-1",
        ")"
      ],
      [
        "\\",
        "ex"
      ],
      [
        "x",
        "^{"
      ],
      [
        "{",
        "r"
      ],
      [
        "1",
        ","
      ],
      [
        "i",
        "d"
      ],
      [
        "{",
        "e"
      ],
      [
        "\\",
        "x"
      ],
      [
        "tar",
        "row"
      ],
      [
        "{",
        "("
      ],
      [
        "{",
        "H"
      ],
      [
        "N",
        "}"
      ],
      [
        "matri",
        "x"
      ],
      [
        "{",
        "F"
      ],
      [
        "_{0",
        "}^{"
      ],
      [
        "y",
        "}"
      ],
      [
        "ig",
        "h"
      ],
      [
        "j",
        "}"
      ],
      [
        "/",
        "2"
      ],
      [
        "\\e",
        "psilon"
      ],
      [
        "(1",
        "-"
      ],
      [
        "\\text",
        "style"
      ],
      [
        "{",
        "s"
      ],
      [
        "{",
        "f"
      ],
      [
        "{",
        "4"
      ],
      [
        "ro",
        "x"
      ],
      [
        "g",
        "e"
      ],
      [
        "}}",
        "}}"
      ],
      [
        "app",
        "rox"
      ],
      [
        "\\",
        "approx"
      ],
      [
        "(",
        "t"
      ],
      [
        "\\",
        "rm"
      ],
      [
        "i",
        "mes"
      ],
      [
        "_{",
        "c"
      ],
      [
        "i",
        "}"
      ],
      [
        "}{",
        "2"
      ],
      [
        "ot",
        "imes"
      ],
      [
        "_{i",
        "})"
      ],
      [
        "\\",
        "ma"
      ],
      [
        "\\",
        "otimes"
      ],
      [
        "\\p",
        "m"
      ],
      [
        "\\l",
        "im"
      ],
      [
        "{",
        "u"
      ],
      [
        "\\pro",
        "d"
      ],
      [
        "\\m",
        "id"
      ],
      [
        "}}",
        ","
      ],
      [
        "igh",
        "tarrow"
      ],
      [
        "{",
        "L"
      ],
      [
        "(",
        "z"
      ],
      [
        "{R",
        "}"
      ],
      [
        "\\x",
        "i"
      ],
      [
        "m",
        "}"
      ],
      [
        "{1}{",
        "2}}"
      ],
      [
        "_{",
        "A"
      ],
      [
        "s",
        "t"
      ],
      [
        "ed",
        "ge"
      ],
      [
        "i",
        "r"
      ],
      [
        "(",
        "A"
      ],
      [
        "w",
        "edge"
      ],
      [
        "i",
        "v"
      ],
      [
        "}}",
        "}{"
      ],
      [
        "(",
        "s"
      ],
      [
        "{",
        "T"
      ],
      [
        "_{",
        "3}"
      ],
      [
        "\\P",
        "hi"
      ],
      [
        "_{",
        "2}}"
      ],
      [
        "^{2}",
        ")"
      ],
      [
        "u",
        "s"
      ],
      [
        "^{",
        "*"
      ],
      [
        "_{n",
        "})"
      ],
      [
        "\\",
        "wedge"
      ],
      [
        "^{",
        "1"
      ],
      [
        "_{2}",
        ","
      ],
      [
        "b",
        "}"
      ],
      [
        "(",
        "k"
      ],
      [
        "ir",
        "c"
      ],
      [
        "=0",
        "}^{"
      ],
      [
        "\\ex",
        "p"
      ],
      [
        ")=",
        "{"
      ],
      [
        "{",
        "Z"
      ],
      [
        "_{",
        "s"
      ],
      [
        "\\e",
        "ll"
      ],
      [
        "\\c",
        "irc"
      ],
      [
        ":",
        "="
      ],
      [
        "}}",
        "={"
      ],
      [
        "{",
        "X"
      ],
      [
        "{",
        "k"
      ],
      [
        ")",
        "+"
      ],
      [
        "b",
        "set"
      ],
      [
        "\\su",
        "bset"
      ],
      [
        "z",
        "}"
      ],
      [
        "{",
        "5"
      ],
      [
        "f",
        "(x)"
      ],
      [
        "}{",
        "2}}"
      ],
      [
        "_{",
        "r"
      ],
      [
        "p",
        "t"
      ],
      [
        "i",
        "t"
      ],
      [
        "{1}{",
        "2}"
      ],
      [
        "_{",
        "x}"
      ],
      [
        "\\,",
        "d"
      ],
      [
        "^",
        "*"
      ],
      [
        "{",
        "t"
      ],
      [
        "{",
        "M"
      ],
      [
        "x",
        ")"
      ],
      [
        "{aligned",
        "}}"
      ],
      [
        "{",
        "I"
      ],
      [
        "qu",
        "iv"
      ],
      [
        "u",
        "p"
      ],
      [
        "{",
        "D"
      ],
      [
        "{E",
        "}"
      ],
      [
        "(",
        "p"
      ],
      [
        "\\e",
        "quiv"
      ],
      [
        "1",
        "&"
      ],
      [
        "+1",
        ")"
      ],
      [
        "^{2}",
        "-"
      ],
      [
        "V",
        "_{"
      ],
      [
        "}{",
        "2}"
      ],
      [
        "[",
        "{"
      ],
      [
        "5",
        "}"
      ],
      [
        "^{",
        "3}"
      ],
      [
        "_{1",
        "}}"
      ],
      [
        "+",
        "2"
      ],
      [
        "\\",
        "k"
      ],
      [
        "s",
        "f"
      ],
      [
        "_{2}",
        ")"
      ],
      [
        "fra",
        "k"
      ],
      [
        "\\math",
        "frak"
      ],
      [
        "\\",
        "L"
      ],
      [
        "_{",
        "X"
      ],
      [
        "\\",
        "q"
      ],
      [
        "{",
        "g"
      ],
      [
        "_{0",
        "})"
      ],
      [
        "^{",
        "4"
      ],
      [
        "1",
        "-"
      ],
      [
        "\\",
        "h"
      ],
      [
        "\\",
        "f"
      ],
      [
        "r",
        "ightarrow"
      ],
      [
        "\\q",
        "quad"
      ],
      [
        "{",
        "r}"
      ],
      [
        "0",
        ")"
      ],
      [
        "\\c",
        "hi"
      ],
      [
        "_{",
        "B"
      ],
      [
        "{",
        "N"
      ],
      [
        "\\",
        "z"
      ],
      [
        "(",
        "r"
      ],
      [
        "app",
        "a"
      ],
      [
        "_{",
        "e"
      ],
      [
        "(",
        "-"
      ],
      [
        "{",
        "G"
      ],
      [
        "matrix",
        "}}"
      ],
      [
        "\\k",
        "appa"
      ],
      [
        "o",
        "ra"
      ],
      [
        "}{",
        "3"
      ],
      [
        "=1}",
        "^{n}"
      ],
      [
        "ora",
        "ll"
      ],
      [
        "\\f",
        "orall"
      ],
      [
        "99",
        "99"
      ],
      [
        "\\",
        "u"
      ],
      [
        "\\z",
        "eta"
      ],
      [
        "\\",
        "B"
      ],
      [
        "_{i",
        "}}"
      ],
      [
        "{aligned",
        "}"
      ],
      [
        "^{2}}",
        "}"
      ],
      [
        "\\h",
        "b"
      ],
      [
        "_{",
        "t}"
      ],
      [
        "d",
        "}"
      ],
      [
        "77",
        "77"
      ],
      [
        "33",
        "33"
      ],
      [
        "}(x",
        ")"
      ],
      [
        "c",
        "}"
      ],
      [
        "44",
        "44"
      ],
      [
        "66",
        "66"
      ],
      [
        "88",
        "88"
      ],
      [
        "{",
        "V"
      ],
      [
        "6",
        "}"
      ],
      [
        ",",
        "x"
      ],
      [
        "\\hb",
        "ar"
      ],
      [
        "_{1}",
        ")"
      ],
      [
        "/",
        "2}"
      ],
      [
        "55",
        "55"
      ],
      [
        "e",
        "t"
      ],
      [
        "0",
        "\\\\"
      ],
      [
        "1",
        ")"
      ],
      [
        "\\n",
        "e"
      ],
      [
        "{",
        "ar"
      ],
      [
        "e",
        "q"
      ],
      [
        "}(",
        "t)"
      ],
      [
        "(",
        "y"
      ],
      [
        "{Z",
        "}"
      ],
      [
        "p",
        "}"
      ],
      [
        "{",
        "q"
      ],
      [
        "(x",
        ")="
      ],
      [
        "1",
        "2"
      ],
      [
        "z",
        ")"
      ],
      [
        "nd",
        "er"
      ],
      [
        "\\,",
        "\\,"
      ],
      [
        "\\u",
        "nder"
      ],
      [
        "&",
        "{"
      ],
      [
        "_{i",
        "=1}^{"
      ],
      [
        "_{",
        "y"
      ],
      [
        "{",
        "O"
      ],
      [
        "=",
        "-"
      ],
      [
        "_{",
        "-"
      ],
      [
        "1",
        "."
      ],
      [
        "\\B",
        "ig"
      ],
      [
        "{",
        "y"
      ],
      [
        "11",
        "11"
      ],
      [
        "d",
        "t"
      ],
      [
        "o",
        "d"
      ],
      [
        "{A",
        "}"
      ],
      [
        "f",
        "lo"
      ],
      [
        "{",
        "{"
      ],
      [
        "\\ma",
        "x"
      ],
      [
        "\\",
        "S"
      ],
      [
        "_{",
        "f"
      ],
      [
        "flo",
        "or"
      ],
      [
        "l",
        "}"
      ],
      [
        "a",
        "}"
      ],
      [
        "_{i",
        "}^{"
      ],
      [
        "(1",
        "+"
      ],
      [
        "22",
        "22"
      ],
      [
        "\\math",
        "sf"
      ],
      [
        "(",
        "u"
      ],
      [
        "{",
        "z"
      ],
      [
        "\\s",
        "im"
      ],
      [
        "}(",
        "X"
      ],
      [
        "_{1}",
        "+"
      ],
      [
        "\\S",
        "igma"
      ],
      [
        ")",
        "^{2}"
      ],
      [
        "(",
        "f"
      ],
      [
        "^{",
        "k"
      ],
      [
        "i",
        "s"
      ],
      [
        "\\",
        "R"
      ],
      [
        "2",
        ","
      ],
      [
        "}",
        "|"
      ],
      [
        "0&",
        "0&"
      ],
      [
        "_{i",
        "j"
      ],
      [
        "n",
        ")"
      ],
      [
        "n",
        "t"
      ],
      [
        "R",
        "_{"
      ],
      [
        "})",
        "="
      ],
      [
        "l",
        "us"
      ],
      [
        "{",
        "i"
      ],
      [
        "}{",
        "4"
      ],
      [
        "{",
        "6"
      ],
      [
        "b",
        ")"
      ],
      [
        "{1",
        "-"
      ],
      [
        "}}",
        "+"
      ],
      [
        "{1}{",
        "2"
      ],
      [
        "{",
        "-"
      ],
      [
        "(",
        "m"
      ],
      [
        "^{",
        "1}"
      ],
      [
        "_{",
        "v"
      ],
      [
        "(",
        "i"
      ],
      [
        "]",
        "="
      ],
      [
        "{",
        "7"
      ],
      [
        ")",
        "}}"
      ],
      [
        "\\P",
        "si"
      ],
      [
        "a",
        "se"
      ],
      [
        "h",
        "}"
      ],
      [
        "{C",
        "}"
      ],
      [
        "00",
        "0"
      ],
      [
        "^{2}",
        "="
      ],
      [
        "1",
        "/"
      ],
      [
        "{",
        "8"
      ],
      [
        "{",
        "2}}"
      ],
      [
        "{v",
        "}"
      ],
      [
        "{",
        "Q"
      ],
      [
        "C",
        "_{"
      ],
      [
        "\\ta",
        "n"
      ],
      [
        "T",
        "_{"
      ],
      [
        "'",
        ")"
      ],
      [
        "\\c",
        "ap"
      ],
      [
        "s",
        "}}"
      ],
      [
        "\\subset",
        "eq"
      ],
      [
        "}+",
        "{"
      ],
      [
        "_{i}",
        ","
      ],
      [
        "_{0",
        "}}"
      ],
      [
        "(n",
        ")"
      ],
      [
        "-",
        "x"
      ],
      [
        "})",
        "^{"
      ],
      [
        "_{0",
        "},"
      ],
      [
        "0000",
        "0000"
      ],
      [
        "c",
        "e"
      ],
      [
        "{c",
        "ase"
      ],
      [
        "_{i",
        "}="
      ],
      [
        "{ar",
        "ra"
      ],
      [
        "(",
        "3"
      ],
      [
        "{",
        "K"
      ],
      [
        "(",
        "c"
      ],
      [
        "E",
        "_{"
      ],
      [
        "_{i",
        "j}"
      ],
      [
        "{",
        "w"
      ],
      [
        "\\under",
        "line"
      ],
      [
        "s",
        "h"
      ],
      [
        "_{",
        "S"
      ],
      [
        "7",
        "}"
      ],
      [
        ")",
        "."
      ],
      [
        "st",
        "o"
      ],
      [
        "x",
        "^{2}"
      ],
      [
        "P",
        "("
      ],
      [
        "_{m",
        "}"
      ],
      [
        "{B",
        "}"
      ],
      [
        "_{p",
        "}"
      ],
      [
        "e^{",
        "i"
      ],
      [
        "{e",
        "}"
      ],
      [
        "1",
        "+"
      ],
      [
        "p",
        "sto"
      ],
      [
        "{1",
        "0"
      ],
      [
        ",",
        "y"
      ],
      [
        "e",
        "e"
      ],
      [
        "\\ma",
        "psto"
      ],
      [
        "_{i",
        "=1}^{n}"
      ],
      [
        "L",
        "}"
      ],
      [
        "\\n",
        "eg"
      ],
      [
        "_{",
        "b"
      ],
      [
        "o",
        "n"
      ],
      [
        "{",
        "9"
      ],
      [
        ")",
        "-"
      ],
      [
        "y",
        "}{"
      ],
      [
        "8",
        "}"
      ],
      [
        "-1",
        "}{"
      ],
      [
        "x",
        "+"
      ],
      [
        "\\op",
        "lus"
      ],
      [
        "\\L",
        "ambda"
      ],
      [
        "_{n",
        "}("
      ],
      [
        "'",
        "'"
      ],
      [
        "_{i",
        "}("
      ],
      [
        "-",
        "a"
      ],
      [
        "o",
        "x"
      ],
      [
        "^{",
        "i"
      ],
      [
        "\\c",
        "up"
      ],
      [
        "{P",
        "}"
      ],
      [
        "q",
        "}"
      ],
      [
        "&",
        "={"
      ],
      [
        "(",
        "v"
      ],
      [
        "\\big",
        "g"
      ],
      [
        "x",
        "_{1}"
      ],
      [
        "f",
        "_{"
      ],
      [
        "(",
        "b"
      ],
      [
        ",",
        "n"
      ],
      [
        "_{",
        "4"
      ],
      [
        "R",
        "}"
      ],
      [
        "P",
        "_{"
      ],
      [
        "\\m",
        "in"
      ],
      [
        "^{",
        "4}"
      ],
      [
        "(",
        "q"
      ],
      [
        "_{1",
        "}}{"
      ],
      [
        "}=",
        "0"
      ],
      [
        "t",
        "}}"
      ],
      [
        "}(",
        "{"
      ],
      [
        "=",
        "1"
      ],
      [
        "_{i",
        ","
      ],
      [
        "g",
        "g"
      ],
      [
        "{u",
        "}"
      ],
      [
        "{",
        "h"
      ],
      [
        ",",
        "b"
      ],
      [
        "{p",
        "}"
      ],
      [
        "m",
        "in"
      ],
      [
        "\\v",
        "ee"
      ],
      [
        "{H",
        "}"
      ],
      [
        "p",
        "la"
      ],
      [
        "f",
        "(x"
      ],
      [
        "\\,",
        "dx"
      ],
      [
        "9",
        "}"
      ],
      [
        "(",
        "S"
      ],
      [
        "da",
        "gg"
      ],
      [
        "dagg",
        "er"
      ],
      [
        "_{",
        "d"
      ],
      [
        "2",
        "^{"
      ],
      [
        "+",
        "b"
      ],
      [
        "}}",
        "+{"
      ],
      [
        "^{*",
        "}"
      ],
      [
        "{X",
        "}"
      ],
      [
        "\\,",
        "{"
      ],
      [
        "(",
        "g"
      ],
      [
        "g",
        "}"
      ],
      [
        "is",
        "pla"
      ],
      [
        "{",
        "T}"
      ],
      [
        "(",
        "T"
      ],
      [
        "e",
        "}"
      ],
      [
        "ispla",
        "y"
      ],
      [
        "\\d",
        "isplay"
      ],
      [
        "\\display",
        "style"
      ],
      [
        "x",
        "_{2}"
      ],
      [
        "\\",
        "dagger"
      ],
      [
        "-",
        "k"
      ],
      [
        "c",
        "ri"
      ],
      [
        "}{",
        "n"
      ],
      [
        "_{",
        "N"
      ],
      [
        "1",
        "6"
      ],
      [
        "_{2",
        "}}{"
      ],
      [
        "1",
        "5"
      ],
      [
        "cri",
        "pt"
      ],
      [
        "_{n",
        "-1}"
      ],
      [
        "C",
        "}"
      ],
      [
        "min",
        "us"
      ],
      [
        "-1",
        ")^{"
      ],
      [
        "s",
        ")"
      ],
      [
        ".",
        "5"
      ],
      [
        "}",
        "^"
      ],
      [
        "F",
        "_{"
      ],
      [
        "B",
        ")"
      ],
      [
        "(",
        "0,"
      ],
      [
        "p",
        "_{"
      ],
      [
        "^{",
        "5"
      ],
      [
        ",",
        "{"
      ],
      [
        "_{n",
        "}="
      ],
      [
        "\\n",
        "ot"
      ],
      [
        "[",
        "0,"
      ],
      [
        "cript",
        "style"
      ],
      [
        "}}",
        "{1"
      ],
      [
        "2",
        "}}{"
      ],
      [
        "=",
        "2"
      ],
      [
        "f",
        "t"
      ],
      [
        "_{j",
        "})"
      ],
      [
        "_{i",
        "}}{"
      ],
      [
        ")",
        "]"
      ],
      [
        "|",
        "x"
      ],
      [
        "I",
        "_{"
      ],
      [
        "{",
        "2}"
      ],
      [
        "[",
        "x"
      ],
      [
        "|",
        "^{2}"
      ],
      [
        "(",
        "d"
      ],
      [
        "_{k",
        "})"
      ],
      [
        "A",
        "_{"
      ],
      [
        "-",
        "i"
      ],
      [
        "b",
        "ox"
      ],
      [
        "1",
        "3"
      ],
      [
        "{a",
        "}"
      ],
      [
        "\\m",
        "box"
      ],
      [
        "\\s",
        "criptstyle"
      ],
      [
        "{F",
        "}"
      ],
      [
        "~",
        "~"
      ],
      [
        "\\",
        "ar"
      ],
      [
        "i",
        "st"
      ],
      [
        "{2",
        "}{"
      ],
      [
        "{",
        "U"
      ],
      [
        "dot",
        "s"
      ],
      [
        "}",
        "^{2}"
      ],
      [
        "1",
        "\\\\"
      ],
      [
        "x",
        "="
      ],
      [
        "_{1}",
        "="
      ],
      [
        "(",
        "P"
      ],
      [
        "-",
        "3"
      ],
      [
        "0",
        "}{"
      ],
      [
        "}(",
        "t"
      ],
      [
        "(",
        "N"
      ],
      [
        "{B",
        "matrix}"
      ],
      [
        "(",
        "4"
      ],
      [
        "^{",
        "+"
      ],
      [
        "{",
        "o"
      ],
      [
        "1",
        "4"
      ],
      [
        "{",
        "matrix}"
      ],
      [
        "a",
        ")"
      ],
      [
        "{",
        "|"
      ],
      [
        "_{",
        "z"
      ],
      [
        "[",
        "X"
      ],
      [
        "A",
        ")"
      ],
      [
        "_{n",
        "+1}"
      ],
      [
        "}",
        "]"
      ],
      [
        "{b",
        "matrix}}"
      ],
      [
        "2",
        "5"
      ],
      [
        "(",
        "M"
      ],
      [
        "}{d",
        "t"
      ],
      [
        "(x,",
        "y)"
      ],
      [
        "}}",
        "]"
      ],
      [
        "1",
        "}{"
      ],
      [
        "}}",
        "\\"
      ],
      [
        "(x,",
        "y"
      ],
      [
        "^{",
        "k}"
      ],
      [
        "p",
        ")"
      ],
      [
        "x",
        "_{i}"
      ],
      [
        "}}",
        "}}}"
      ],
      [
        "'",
        "="
      ],
      [
        ",",
        "t"
      ],
      [
        "_{1",
        "2}"
      ],
      [
        "S",
        "_{"
      ],
      [
        ")=",
        "0"
      ],
      [
        "{",
        "N}"
      ],
      [
        "(s",
        ")"
      ],
      [
        "P",
        "}"
      ],
      [
        "(",
        "E"
      ],
      [
        "3",
        "}}"
      ],
      [
        "(1",
        ")"
      ],
      [
        "_{0",
        "}}{"
      ],
      [
        "_{0",
        "}("
      ],
      [
        "\\co",
        "ng"
      ],
      [
        "k",
        "_{"
      ],
      [
        "\\,",
        "\\!"
      ],
      [
        "\\r",
        "floor"
      ],
      [
        "\\R",
        "ightarrow"
      ],
      [
        "_{A",
        "}"
      ],
      [
        "_{n",
        "}^{"
      ],
      [
        "k",
        ")"
      ],
      [
        "{x",
        "}}"
      ],
      [
        "\\big",
        "l"
      ],
      [
        "}{d",
        "t}"
      ],
      [
        "(z",
        ")"
      ],
      [
        "*",
        "}"
      ],
      [
        "&",
        "&"
      ],
      [
        "\\l",
        "floor"
      ],
      [
        "\\big",
        "r"
      ],
      [
        "\\not",
        "in"
      ],
      [
        ",",
        "\\"
      ],
      [
        "^{",
        "T}"
      ],
      [
        "(",
        "R"
      ],
      [
        "b",
        "f"
      ],
      [
        "[",
        "n"
      ],
      [
        "I",
        "}"
      ],
      [
        "2",
        "}{"
      ],
      [
        "{n",
        "}{"
      ],
      [
        "it",
        "s"
      ],
      [
        "{",
        "W"
      ],
      [
        ",",
        "v"
      ],
      [
        "=",
        "1,"
      ],
      [
        "^{",
        "0"
      ],
      [
        ",",
        "t)"
      ],
      [
        "ist",
        "s"
      ],
      [
        "!",
        "}"
      ],
      [
        "{",
        "Y"
      ],
      [
        "V",
        "}"
      ],
      [
        "1",
        "8"
      ],
      [
        "c",
        "^{2}}"
      ],
      [
        "x",
        "_{"
      ],
      [
        "\\\\",
        "["
      ],
      [
        "^{2}}{",
        "2"
      ],
      [
        "_{n",
        "}}"
      ],
      [
        "\\ex",
        "ists"
      ],
      [
        "D",
        "}"
      ],
      [
        "ft",
        "rightarrow"
      ],
      [
        "a",
        "t"
      ],
      [
        "_{a",
        "}^{"
      ],
      [
        "]",
        "}"
      ],
      [
        "_{a",
        "}"
      ],
      [
        "\\\\",
        "&="
      ],
      [
        "{",
        "in"
      ],
      [
        "|",
        "}"
      ],
      [
        "{1}{",
        "4"
      ],
      [
        "\\text",
        "bf"
      ],
      [
        "_{",
        "r}"
      ],
      [
        "{",
        "k}"
      ],
      [
        "M",
        "}"
      ],
      [
        "-1",
        "}}"
      ],
      [
        "f",
        "}"
      ],
      [
        "\\P",
        "i"
      ],
      [
        "_{B",
        "}"
      ],
      [
        "\\s",
        "et"
      ],
      [
        "\\set",
        "minus"
      ],
      [
        "^{",
        "7"
      ],
      [
        "\\d",
        "et"
      ],
      [
        "\\;",
        "\\;"
      ],
      [
        "2",
        "0"
      ],
      [
        "2",
        "."
      ],
      [
        "y",
        "="
      ],
      [
        "_{",
        "s}"
      ],
      [
        "'",
        "}"
      ],
      [
        "(",
        "Y"
      ],
      [
        "}}",
        "-"
      ],
      [
        "_{",
        "l"
      ],
      [
        "(t",
        ")="
      ],
      [
        "{",
        "J"
      ],
      [
        "2",
        "4"
      ],
      [
        "A",
        "}"
      ],
      [
        "\\!",
        "\\!"
      ],
      [
        "\\lim",
        "its"
      ],
      [
        "_{c",
        "}"
      ],
      [
        "c",
        ")"
      ],
      [
        "3",
        "6"
      ],
      [
        "ng",
        "rightarrow"
      ],
      [
        "\\ar",
        "c"
      ],
      [
        "{1",
        "+"
      ],
      [
        "B",
        "}"
      ],
      [
        "^{",
        "a"
      ],
      [
        "}^{",
        "2}}"
      ],
      [
        "r",
        ")"
      ],
      [
        "nt",
        "om"
      ],
      [
        "3",
        ","
      ],
      [
        "_{",
        "y}"
      ],
      [
        "f",
        ")"
      ],
      [
        "})",
        "}"
      ],
      [
        "u",
        "}"
      ],
      [
        "r",
        "^{2}"
      ],
      [
        "_{0",
        "}+"
      ],
      [
        "\\",
        "T"
      ],
      [
        "n",
        "}}"
      ],
      [
        "3",
        "."
      ],
      [
        "q",
        ")"
      ],
      [
        "(",
        "G"
      ],
      [
        "^{",
        "p"
      ],
      [
        "0.",
        "5"
      ],
      [
        "}=",
        "-"
      ],
      [
        "_{k",
        "=0}^{"
      ],
      [
        "x",
        "}{"
      ],
      [
        "_{1",
        "1}"
      ],
      [
        "_{2}",
        "="
      ],
      [
        "u",
        "l"
      ],
      [
        "1",
        "7"
      ],
      [
        "(",
        "B"
      ],
      [
        "(",
        "y)"
      ],
      [
        "E",
        "}"
      ],
      [
        "(",
        "}"
      ],
      [
        ",",
        "m"
      ],
      [
        "i",
        "l"
      ],
      [
        "{A",
        "}}_{"
      ],
      [
        "\\su",
        "p"
      ],
      [
        "_{",
        "q"
      ],
      [
        "|",
        "{"
      ],
      [
        "{S",
        "}"
      ],
      [
        ",",
        "a"
      ],
      [
        "_{j",
        "}}"
      ],
      [
        "_{0",
        "}="
      ],
      [
        "S",
        "}"
      ],
      [
        "\\v",
        "pha"
      ],
      [
        "\\vpha",
        "ntom"
      ],
      [
        "_{",
        "L"
      ],
      [
        "_{",
        "o"
      ],
      [
        "_{1}",
        "-"
      ],
      [
        "\\T",
        "heta"
      ],
      [
        "pt",
        "]"
      ],
      [
        "\\v",
        "dots"
      ],
      [
        "\\{",
        "x"
      ],
      [
        "_{n",
        "=1}^{"
      ],
      [
        "1",
        "]"
      ],
      [
        "(",
        "C"
      ],
      [
        "a",
        "_{1}"
      ],
      [
        "(",
        "w"
      ],
      [
        "o",
        "p"
      ],
      [
        "{",
        "y}"
      ],
      [
        "3",
        "0"
      ],
      [
        "_{X",
        "}"
      ],
      [
        "\\",
        "},"
      ],
      [
        "2",
        ")"
      ],
      [
        "K",
        "}"
      ],
      [
        "a",
        "b"
      ],
      [
        "1",
        "9"
      ],
      [
        "f",
        "'"
      ],
      [
        "\\\\",
        "&"
      ],
      [
        "}}",
        "\\,"
      ],
      [
        "\\big",
        "c"
      ],
      [
        "{case",
        "s}}"
      ],
      [
        ",",
        "Y"
      ],
      [
        "-",
        "b"
      ],
      [
        "_{",
        "w"
      ],
      [
        "8",
        "0"
      ],
      [
        "(",
        "0"
      ],
      [
        "H",
        "}"
      ],
      [
        "\\\\",
        "{"
      ],
      [
        "^{",
        "6"
      ],
      [
        "A",
        "="
      ],
      [
        "{arra",
        "y}{"
      ],
      [
        "(X",
        ")"
      ],
      [
        ",",
        "k"
      ],
      [
        "in",
        "t"
      ],
      [
        "^{2}",
        "("
      ],
      [
        "\\text",
        "rm"
      ],
      [
        "}^{",
        "-1}"
      ],
      [
        "^{",
        "m"
      ],
      [
        "-",
        "4"
      ],
      [
        "2",
        "7"
      ],
      [
        "5",
        "}}"
      ],
      [
        ">",
        "0"
      ],
      [
        "_{",
        "4}"
      ],
      [
        "6",
        "0"
      ],
      [
        "6",
        "4"
      ],
      [
        "(",
        "h"
      ],
      [
        "+",
        "c"
      ],
      [
        ",",
        "z"
      ],
      [
        "v",
        "}"
      ],
      [
        "x",
        "^{2}}"
      ],
      [
        "m",
        "p"
      ],
      [
        "_{",
        "h"
      ],
      [
        ",",
        "j"
      ],
      [
        ")",
        "|"
      ],
      [
        "\\math",
        "it"
      ],
      [
        "-",
        "y"
      ],
      [
        "{b",
        "matrix"
      ],
      [
        "_{",
        "T"
      ],
      [
        "0.",
        "0"
      ],
      [
        "ta",
        "n"
      ],
      [
        "a",
        "c"
      ],
      [
        "3",
        "}{"
      ],
      [
        "}}",
        "({"
      ],
      [
        "\\P",
        "r"
      ],
      [
        "=",
        "("
      ],
      [
        "-",
        "2}"
      ],
      [
        "^{3",
        "}+"
      ],
      [
        "}}",
        "})"
      ],
      [
        ",",
        "X"
      ],
      [
        "}{d",
        "x}"
      ],
      [
        "_{",
        "g"
      ],
      [
        "(x",
        "_{1},"
      ],
      [
        "(1",
        ","
      ],
      [
        "99",
        "9"
      ],
      [
        "^{n",
        "-1}"
      ],
      [
        "x",
        "^{2}+"
      ],
      [
        "}}",
        "|"
      ],
      [
        ")",
        "{"
      ],
      [
        "(",
        "0)"
      ],
      [
        "_{n",
        "},"
      ],
      [
        "_{",
        "z}"
      ],
      [
        ",",
        "\\,"
      ],
      [
        "t}",
        "]"
      ],
      [
        "\\s",
        "ma"
      ],
      [
        "f",
        "or"
      ],
      [
        "{b",
        "}"
      ],
      [
        "_{j",
        "=1}^{"
      ],
      [
        "c",
        "^{2}"
      ],
      [
        "\\L",
        "o"
      ],
      [
        "le",
        "t"
      ],
      [
        "f",
        "}{"
      ],
      [
        "{",
        "l"
      ],
      [
        "{n",
        "}"
      ],
      [
        "6",
        "}{"
      ],
      [
        "a",
        "^{2}"
      ],
      [
        "{Q",
        "}"
      ],
      [
        "2",
        "8"
      ],
      [
        "\\",
        "{1"
      ],
      [
        "^{3",
        "}}"
      ],
      [
        "(",
        "V"
      ],
      [
        "-1",
        ","
      ],
      [
        "+",
        "n"
      ],
      [
        "+",
        "3"
      ],
      [
        "(",
        "L"
      ],
      [
        ")",
        "/"
      ],
      [
        ".",
        "0"
      ],
      [
        "H",
        "_{"
      ],
      [
        "}},",
        "{"
      ],
      [
        "K",
        "_{"
      ],
      [
        "a",
        "nd"
      ],
      [
        "_{1}",
        "^{"
      ],
      [
        "X",
        "}"
      ],
      [
        "_{e",
        "}"
      ],
      [
        "3",
        "4"
      ],
      [
        "a",
        "_{2}"
      ],
      [
        "{T",
        "}}"
      ],
      [
        "{x",
        "}{"
      ],
      [
        "}}{",
        "2"
      ],
      [
        "-",
        "m"
      ],
      [
        "ul",
        "let"
      ],
      [
        "_{i",
        "=0}^{"
      ],
      [
        "}^{",
        "n}"
      ],
      [
        "}(x",
        ")="
      ],
      [
        "D",
        "_{"
      ],
      [
        "\\b",
        "ullet"
      ],
      [
        "_{k",
        "}}"
      ],
      [
        "[{",
        "t}]"
      ],
      [
        "\\sma",
        "sh"
      ],
      [
        "_{k",
        "}("
      ],
      [
        "3",
        "7"
      ],
      [
        "r",
        "e"
      ],
      [
        "44",
        "4"
      ],
      [
        "g",
        "_{"
      ],
      [
        "{f",
        "}"
      ],
      [
        "(",
        "j"
      ],
      [
        "\\,",
        ","
      ],
      [
        "d",
        "y"
      ],
      [
        "T",
        ")"
      ],
      [
        "})",
        "}{"
      ],
      [
        "9",
        "4"
      ],
      [
        "_{k",
        "=1}^{"
      ],
      [
        "x",
        ","
      ],
      [
        "O",
        "("
      ],
      [
        "u",
        "}{"
      ],
      [
        "+",
        "i"
      ],
      [
        "a",
        "_{n}"
      ],
      [
        ",",
        "q"
      ],
      [
        "}=",
        "1"
      ],
      [
        "u",
        "t"
      ],
      [
        "y",
        "}}"
      ],
      [
        "}{",
        "c"
      ],
      [
        "(",
        "F"
      ],
      [
        "^",
        "+"
      ],
      [
        "x",
        "}}"
      ],
      [
        "{p",
        "matrix}}"
      ],
      [
        "3",
        "8"
      ],
      [
        "(",
        "I"
      ],
      [
        "3",
        "5"
      ],
      [
        "(",
        "-1)^{"
      ],
      [
        ".",
        "7"
      ],
      [
        "m",
        "od"
      ],
      [
        "u",
        ")"
      ],
      [
        "_{n",
        "=0}^{"
      ],
      [
        "/",
        "4"
      ],
      [
        "{M",
        "}"
      ],
      [
        "77",
        "7"
      ],
      [
        "\\c",
        "e"
      ],
      [
        "6",
        "}}"
      ],
      [
        "-",
        "c"
      ],
      [
        "^{",
        "i}"
      ],
      [
        "e^{-",
        "i"
      ],
      [
        "a",
        "_{"
      ],
      [
        "r",
        "_{"
      ],
      [
        "_{0}^{",
        "1}"
      ],
      [
        "\\pm",
        "od"
      ],
      [
        "55",
        "5"
      ],
      [
        "{L",
        "}"
      ],
      [
        "88",
        "8"
      ],
      [
        "{I",
        "}"
      ],
      [
        "^{n",
        "}}"
      ],
      [
        "y",
        "^{2}"
      ],
      [
        "})",
        "^{2}"
      ],
      [
        "|",
        "|"
      ],
      [
        "(A",
        ")"
      ],
      [
        "=1}",
        "^{n"
      ],
      [
        "g",
        "(x)"
      ],
      [
        "mp",
        "ty"
      ],
      [
        "{a",
        "}{"
      ],
      [
        "(k",
        ")"
      ],
      [
        "(a",
        ")"
      ],
      [
        "(",
        "D"
      ],
      [
        "_{2}",
        "+"
      ],
      [
        "22",
        "2"
      ],
      [
        "^{3",
        "}}{"
      ],
      [
        "S",
        "="
      ],
      [
        "}(X",
        ")"
      ],
      [
        "{case",
        "s}"
      ],
      [
        "mpty",
        "set"
      ],
      [
        "\\e",
        "mptyset"
      ],
      [
        "11",
        "1"
      ],
      [
        "\\pro",
        "pt"
      ],
      [
        "\\propt",
        "o"
      ],
      [
        "_{i",
        "+1}"
      ],
      [
        "M",
        "_{"
      ],
      [
        ".",
        "4"
      ],
      [
        "i",
        "me"
      ],
      [
        "0000",
        "00"
      ],
      [
        "v",
        "_{"
      ],
      [
        "_{i}",
        "-"
      ],
      [
        "c",
        "o"
      ],
      [
        "_{3",
        "})"
      ],
      [
        "'",
        ","
      ],
      [
        "da",
        "sh"
      ],
      [
        "/2",
        ")"
      ],
      [
        "{1}{",
        "n"
      ],
      [
        "G",
        "}"
      ],
      [
        "(",
        "K"
      ],
      [
        "33",
        "3"
      ],
      [
        "}{",
        "m"
      ],
      [
        "_{S",
        "}"
      ],
      [
        "M",
        ")"
      ],
      [
        "/",
        "3"
      ],
      [
        "(n",
        "-1)"
      ],
      [
        "R",
        ")"
      ],
      [
        "{i",
        "f"
      ],
      [
        "2",
        "&"
      ],
      [
        "^{",
        "9"
      ],
      [
        "}}",
        "-{"
      ],
      [
        "{D",
        "}"
      ],
      [
        "[",
        "A"
      ],
      [
        "_{j",
        "}^{"
      ],
      [
        "L",
        "_{"
      ],
      [
        "}{",
        "k"
      ],
      [
        "\\,",
        "."
      ],
      [
        "\\{",
        "0,"
      ],
      [
        "(2",
        ")"
      ],
      [
        ".",
        "8"
      ],
      [
        "66",
        "6"
      ],
      [
        "1",
        "00"
      ],
      [
        "5",
        "0"
      ],
      [
        "=0",
        ","
      ],
      [
        "\\b",
        "mod"
      ],
      [
        "\\s",
        "tar"
      ],
      [
        "{1",
        "00000000"
      ],
      [
        "{4",
        "}{"
      ],
      [
        "0\\\\",
        "0&"
      ],
      [
        "f",
        "(x)="
      ],
      [
        "}(",
        "n"
      ],
      [
        "\\",
        "i"
      ],
      [
        "2",
        "9"
      ],
      [
        "i",
        ")"
      ],
      [
        "+1",
        "}}"
      ],
      [
        "(",
        "H"
      ],
      [
        "{",
        "s}"
      ],
      [
        "^{",
        "0}"
      ],
      [
        "ar",
        "row"
      ],
      [
        "{",
        "1}"
      ],
      [
        "}^{",
        "n"
      ],
      [
        "}",
        "."
      ],
      [
        "{d",
        "^{2}"
      ],
      [
        "r",
        "el"
      ],
      [
        "]",
        ","
      ],
      [
        "6",
        "9"
      ],
      [
        "}{",
        "a"
      ],
      [
        "m",
        "_{"
      ],
      [
        "(",
        "U"
      ],
      [
        "(",
        "e"
      ],
      [
        "}{",
        "r"
      ],
      [
        "(a",
        ","
      ],
      [
        "}(",
        "z"
      ],
      [
        "{",
        "}"
      ],
      [
        "]",
        ")"
      ],
      [
        "{m",
        "}"
      ],
      [
        "+",
        "}"
      ],
      [
        ",",
        "w"
      ],
      [
        "a",
        "_{i}"
      ],
      [
        "^{n",
        "})"
      ],
      [
        "{c",
        "}"
      ],
      [
        "-",
        "p"
      ],
      [
        "c",
        "c"
      ],
      [
        "+",
        "k"
      ],
      [
        "+",
        "4"
      ],
      [
        "T",
        "}{"
      ],
      [
        "N",
        "_{"
      ],
      [
        "_{a}^{",
        "b}"
      ],
      [
        "\\text",
        "sf"
      ],
      [
        "ce",
        "il"
      ],
      [
        "\\{1",
        ","
      ],
      [
        "(x",
        "-"
      ],
      [
        ",",
        "p"
      ],
      [
        "|",
        "="
      ],
      [
        "F",
        "}"
      ],
      [
        "d",
        "_{"
      ],
      [
        "}{1",
        "0"
      ],
      [
        "8",
        "}}"
      ],
      [
        "\\bigc",
        "up"
      ],
      [
        "10",
        "^{"
      ],
      [
        "_{2",
        "2}"
      ],
      [
        "3",
        "9"
      ],
      [
        "}}{",
        "n"
      ],
      [
        "x",
        "y"
      ],
      [
        "_{k",
        "}^{"
      ],
      [
        "c",
        "_{1}"
      ],
      [
        "6",
        "5"
      ],
      [
        "\\v",
        "dash"
      ],
      [
        "^{",
        "m}"
      ],
      [
        "e",
        "n"
      ],
      [
        ".",
        "9"
      ],
      [
        "6",
        "7"
      ],
      [
        "{B",
        "}}"
      ],
      [
        "|",
        "z"
      ],
      [
        "^{",
        "j"
      ],
      [
        "(",
        "("
      ],
      [
        "_{",
        "C"
      ],
      [
        "10",
        "^{-"
      ],
      [
        "er",
        "p"
      ],
      [
        "o",
        "f"
      ],
      [
        "-",
        "n"
      ],
      [
        "}}{",
        "c"
      ],
      [
        "x",
        "_{n}"
      ],
      [
        "}(",
        "a"
      ],
      [
        "{A",
        "}}"
      ],
      [
        "{q",
        "}"
      ],
      [
        "d",
        "z"
      ],
      [
        "v",
        ")"
      ],
      [
        "x",
        "'"
      ],
      [
        "\\,d",
        "t"
      ],
      [
        "X",
        ")"
      ],
      [
        "_{v",
        "}"
      ],
      [
        "T",
        "}}"
      ],
      [
        "_{3",
        "},"
      ],
      [
        "[n",
        "]"
      ],
      [
        "C",
        ")"
      ],
      [
        "1",
        "}}"
      ],
      [
        "y",
        "_{1}"
      ],
      [
        "Y",
        "}"
      ],
      [
        "\\p",
        "erp"
      ],
      [
        "})",
        ","
      ],
      [
        "f(",
        "t)"
      ],
      [
        "+",
        "a"
      ],
      [
        "\\cos",
        "h"
      ],
      [
        "!",
        "}}"
      ],
      [
        "_{",
        "b}"
      ],
      [
        "J",
        "}"
      ],
      [
        "P",
        "="
      ],
      [
        "}{",
        "5"
      ],
      [
        "h",
        "er"
      ],
      [
        "(r",
        ")"
      ],
      [
        "(",
        "5"
      ],
      [
        "-1",
        "&"
      ],
      [
        "{",
        "["
      ],
      [
        "_{k",
        "}="
      ],
      [
        "{p",
        "}}"
      ],
      [
        ".",
        "}"
      ],
      [
        ",",
        "s"
      ],
      [
        "^{2",
        "}{"
      ],
      [
        "_{f",
        "}"
      ],
      [
        "]",
        "}{"
      ],
      [
        "^{2}}",
        "}}"
      ],
      [
        "_{k",
        "+1}"
      ],
      [
        "[",
        "a"
      ],
      [
        "\\lo",
        "ngrightarrow"
      ],
      [
        "g",
        ")"
      ],
      [
        "+",
        "d"
      ],
      [
        ",",
        "d"
      ],
      [
        "_{",
        "R"
      ],
      [
        "\\sin",
        "h"
      ],
      [
        "{",
        "z}"
      ],
      [
        "_{2}",
        "-"
      ],
      [
        "\\",
        "Z"
      ],
      [
        "1",
        "\\"
      ],
      [
        "}^{",
        "2}}{"
      ],
      [
        "m",
        ")"
      ],
      [
        "^{1",
        "/"
      ],
      [
        "p",
        "_{i}"
      ],
      [
        "f",
        "tarrow"
      ],
      [
        "g",
        "("
      ],
      [
        "}}{",
        "2}"
      ],
      [
        "_{1}",
        "("
      ],
      [
        ",",
        "i"
      ],
      [
        "n",
        "_{"
      ],
      [
        "}{1",
        "00000000"
      ],
      [
        "c",
        "_{"
      ],
      [
        "^{2}",
        "/"
      ],
      [
        "}}{",
        "4"
      ],
      [
        "\\s",
        "ime"
      ],
      [
        "\\sime",
        "q"
      ],
      [
        "5555",
        "5"
      ],
      [
        "{x",
        "})"
      ],
      [
        "(x",
        "+"
      ],
      [
        "_{t",
        "})"
      ],
      [
        "{",
        "e^{"
      ],
      [
        "t",
        "}{"
      ],
      [
        "X",
        "_{"
      ],
      [
        "r",
        "="
      ],
      [
        "3",
        ")"
      ],
      [
        "=",
        "\\{"
      ],
      [
        ",",
        "c"
      ],
      [
        "4444",
        "4"
      ],
      [
        "6",
        "8"
      ],
      [
        "\\arc",
        "tan"
      ],
      [
        "\\c",
        "ot"
      ],
      [
        "_{i",
        "-1}"
      ],
      [
        "f",
        ":"
      ],
      [
        "{K",
        "}"
      ],
      [
        "_{1}",
        "^{2}"
      ],
      [
        "{p",
        "matrix"
      ],
      [
        "_{t",
        "}="
      ],
      [
        "_{2",
        "1}"
      ],
      [
        "c",
        "k"
      ],
      [
        "}}",
        ")="
      ],
      [
        "}",
        "\\"
      ],
      [
        "i",
        "on"
      ],
      [
        "|",
        "X"
      ],
      [
        "m",
        "}}"
      ],
      [
        "|",
        "}{"
      ],
      [
        "_{i=1}^{",
        "N}"
      ],
      [
        "{1}{",
        "1"
      ],
      [
        "A",
        "^{"
      ],
      [
        "7",
        "5"
      ],
      [
        "9999",
        "9"
      ],
      [
        "\\le",
        "ftarrow"
      ],
      [
        "8888",
        "8"
      ],
      [
        "A",
        ","
      ],
      [
        "_{1",
        ","
      ],
      [
        "{n",
        "}}"
      ],
      [
        "_{2}",
        "("
      ],
      [
        "p",
        "_{1}"
      ],
      [
        "x",
        "_{2},"
      ],
      [
        "9",
        "0"
      ],
      [
        ")",
        "\\,"
      ],
      [
        "7777",
        "7"
      ],
      [
        "V",
        "_"
      ],
      [
        "3",
        "2"
      ],
      [
        "=1}",
        "^"
      ],
      [
        "{f",
        "or"
      ],
      [
        "_{i,",
        "j"
      ],
      [
        "r",
        "}("
      ],
      [
        "{1}{",
        "3"
      ],
      [
        "-",
        "t"
      ],
      [
        "3333",
        "33"
      ],
      [
        "\\",
        "%"
      ],
      [
        "}}{",
        "d"
      ],
      [
        ")=",
        "1"
      ],
      [
        "y",
        "'"
      ],
      [
        "E",
        "["
      ],
      [
        "_{",
        "P"
      ],
      [
        "6666",
        "66"
      ],
      [
        "n",
        "="
      ],
      [
        "-",
        "z"
      ],
      [
        "f",
        "^{-1}"
      ],
      [
        "9999",
        "99"
      ],
      [
        "(f",
        ")"
      ],
      [
        "(",
        "}{"
      ],
      [
        "4",
        "0"
      ],
      [
        "_{",
        "M"
      ],
      [
        "}",
        "["
      ],
      [
        "8888",
        "88"
      ],
      [
        "p",
        "("
      ],
      [
        "(X",
        ","
      ],
      [
        "(n",
        "+1)"
      ],
      [
        "4444",
        "44"
      ],
      [
        "{F",
        "}}"
      ],
      [
        "r",
        "}}"
      ],
      [
        "_{",
        "u"
      ],
      [
        "7",
        "0"
      ],
      [
        "2222",
        "2"
      ],
      [
        "|",
        "A"
      ],
      [
        "_{n",
        "}}{"
      ],
      [
        "{g",
        "}"
      ],
      [
        "4",
        "}{"
      ],
      [
        "|",
        "<"
      ],
      [
        "{d",
        "}{d"
      ],
      [
        "3333",
        "3"
      ],
      [
        "h",
        ")"
      ],
      [
        "X",
        "^{"
      ],
      [
        "r",
        "^{2}}"
      ],
      [
        "a",
        "="
      ],
      [
        "7777",
        "77"
      ],
      [
        "0\\\\",
        "0&0&"
      ],
      [
        "{",
        "j"
      ],
      [
        "e",
        "s"
      ],
      [
        "x^{",
        "3}"
      ],
      [
        "d",
        "u"
      ],
      [
        "+",
        "2}"
      ],
      [
        "^{2}}{",
        "4"
      ],
      [
        "}",
        "\\,"
      ],
      [
        "t",
        ")="
      ],
      [
        "/",
        "{"
      ],
      [
        "\\to",
        "p"
      ],
      [
        "})",
        ")"
      ],
      [
        "E",
        ")"
      ],
      [
        "\\m",
        "od"
      ],
      [
        "{H",
        "om"
      ],
      [
        "7",
        "}}"
      ],
      [
        "(z",
        ")="
      ],
      [
        "\\Big",
        "g"
      ],
      [
        "x",
        "-"
      ],
      [
        "4",
        "5"
      ],
      [
        "{O",
        "}"
      ],
      [
        "p",
        "}{"
      ],
      [
        "_{k",
        "-1}"
      ],
      [
        "6666",
        "6"
      ],
      [
        "L",
        "}{"
      ],
      [
        "V",
        "}{"
      ],
      [
        "s",
        "la"
      ],
      [
        "4",
        "8"
      ],
      [
        "0000",
        "0"
      ],
      [
        "{d",
        "y"
      ],
      [
        "f",
        ","
      ],
      [
        "v",
        "="
      ],
      [
        "}(",
        "n)"
      ],
      [
        "F",
        "("
      ],
      [
        "z",
        "="
      ],
      [
        "{r",
        "}}"
      ],
      [
        "^{2}",
        ","
      ],
      [
        "{G",
        "}"
      ],
      [
        "5555",
        "55"
      ],
      [
        "}(",
        "1-"
      ],
      [
        "{t",
        "r}"
      ],
      [
        "Y",
        ")"
      ],
      [
        "1",
        "\\}"
      ],
      [
        "&",
        "-"
      ],
      [
        ")",
        "\\"
      ],
      [
        "g",
        "^{"
      ],
      [
        "}})",
        "^{"
      ],
      [
        "f",
        "^{"
      ],
      [
        "})",
        "+"
      ],
      [
        "art",
        "heta"
      ],
      [
        "\\v",
        "artheta"
      ],
      [
        "1111",
        "1"
      ],
      [
        "E",
        "="
      ],
      [
        "o",
        "w"
      ],
      [
        "})",
        "."
      ],
      [
        "{3",
        "}{"
      ],
      [
        "}{1",
        "-"
      ],
      [
        "O",
        "}"
      ],
      [
        "}=",
        "2"
      ],
      [
        "[0,",
        "1]"
      ],
      [
        "4",
        ","
      ],
      [
        "V",
        ")"
      ],
      [
        "_{2}",
        "^{"
      ],
      [
        "(",
        "|"
      ],
      [
        "N",
        "}}"
      ],
      [
        "s",
        "in"
      ],
      [
        "\\Lo",
        "ngrightarrow"
      ],
      [
        "_{2}}",
        "}"
      ],
      [
        "{d",
        "x"
      ],
      [
        "Z",
        "_{"
      ],
      [
        "(1",
        "/"
      ],
      [
        ")",
        "^{-1}"
      ],
      [
        "=0",
        "}^"
      ],
      [
        "{S",
        "p"
      ],
      [
        "i",
        "f"
      ],
      [
        "Q",
        "_{"
      ],
      [
        "_{k",
        "=1}^{n}"
      ],
      [
        "s",
        "_{"
      ],
      [
        "_{i",
        "=1}^{n"
      ],
      [
        "^{",
        "d"
      ],
      [
        "_{t",
        "}^{"
      ],
      [
        "h",
        "_{"
      ],
      [
        "{w",
        "}"
      ],
      [
        "U",
        "}"
      ],
      [
        "3",
        "&"
      ],
      [
        "\\\\",
        "0&"
      ],
      [
        "}}",
        "."
      ],
      [
        "_{1",
        "0"
      ],
      [
        "_{i",
        "}}}"
      ],
      [
        "_{0}",
        "^"
      ],
      [
        "n",
        "}{"
      ],
      [
        "n",
        "^{"
      ],
      [
        "\\}",
        "."
      ],
      [
        "{V",
        "}"
      ],
      [
        "e",
        "_{"
      ],
      [
        "{",
        "i}"
      ],
      [
        "z",
        "^{"
      ],
      [
        "_{m",
        "})"
      ],
      [
        "}(",
        "s"
      ],
      [
        "V",
        "="
      ],
      [
        "ar",
        "}"
      ],
      [
        "7",
        "}{"
      ],
      [
        "{",
        "0"
      ],
      [
        "y",
        "_{i}"
      ],
      [
        "\\",
        "#"
      ],
      [
        "{5",
        "}{"
      ],
      [
        "1&",
        "1&"
      ],
      [
        "{",
        "3}"
      ],
      [
        "+",
        "q"
      ],
      [
        "U",
        "_{"
      ],
      [
        "=0",
        "."
      ],
      [
        "}}{",
        "k"
      ],
      [
        "5",
        "}{"
      ],
      [
        "(1",
        "-{"
      ],
      [
        "G",
        "_{"
      ],
      [
        "e",
        "p"
      ],
      [
        "2",
        "6"
      ],
      [
        "n",
        "-1}"
      ],
      [
        "p",
        "="
      ],
      [
        "^",
        "-"
      ],
      [
        "t",
        "+"
      ],
      [
        ")^{",
        "3"
      ],
      [
        "f",
        "="
      ],
      [
        "_{j",
        "},"
      ],
      [
        "}(x",
        ","
      ],
      [
        "X",
        "_{i}"
      ],
      [
        "S",
        ")"
      ],
      [
        "t",
        "="
      ],
      [
        "\\",
        "}}"
      ],
      [
        "_{0",
        "}}}"
      ],
      [
        "^{-",
        "2}"
      ],
      [
        "~",
        "{"
      ],
      [
        "(x)",
        ")"
      ],
      [
        "^{1",
        "/2}"
      ],
      [
        "B",
        "_{"
      ],
      [
        "^{",
        "8"
      ],
      [
        "{aligned",
        "}{"
      ],
      [
        "(2",
        "n"
      ],
      [
        "'",
        "}{"
      ],
      [
        "x",
        "_{0}"
      ],
      [
        "{d",
        "}{"
      ],
      [
        "_{j",
        "}="
      ],
      [
        "^{",
        "p}"
      ],
      [
        "}^{",
        "1}"
      ],
      [
        "R",
        "="
      ],
      [
        "X",
        "="
      ],
      [
        "e",
        "}}"
      ],
      [
        "-2",
        ")"
      ],
      [
        "y",
        ","
      ],
      [
        "-",
        "("
      ],
      [
        "-",
        "r"
      ],
      [
        "]",
        "+"
      ],
      [
        "{a",
        "nd"
      ],
      [
        "{",
        "matrix}}"
      ],
      [
        "}{3",
        "}}"
      ],
      [
        "v",
        "}{"
      ],
      [
        "o",
        "}"
      ],
      [
        "7",
        "8"
      ],
      [
        "f",
        "_{1}"
      ],
      [
        "(",
        "l"
      ],
      [
        "N",
        ")"
      ],
      [
        "ma",
        "ll"
      ],
      [
        "c",
        "_{2}"
      ],
      [
        "e",
        "^{2"
      ],
      [
        "\\",
        "angle"
      ],
      [
        "|",
        "_{"
      ],
      [
        "_{0}^{",
        "t}"
      ],
      [
        "i",
        "}}"
      ],
      [
        ",",
        "r"
      ],
      [
        "p",
        "(x)"
      ],
      [
        ",",
        "u"
      ],
      [
        "2",
        "3"
      ],
      [
        "_{1",
        "}}}"
      ],
      [
        "9",
        "5"
      ],
      [
        ":",
        "{"
      ],
      [
        "x",
        "."
      ],
      [
        "9",
        "}{"
      ],
      [
        "_{p",
        "}("
      ],
      [
        ",x",
        "_{n})"
      ],
      [
        "\\{",
        "{"
      ],
      [
        "G",
        ")"
      ],
      [
        "{s",
        "mall"
      ],
      [
        "\\|",
        "_{"
      ],
      [
        "}{1",
        "+"
      ],
      [
        "w",
        "}"
      ],
      [
        "00",
        "}"
      ],
      [
        "al",
        "l"
      ],
      [
        "1",
        "/2"
      ],
      [
        "9",
        "}}"
      ],
      [
        "2}}",
        "}"
      ],
      [
        "{3",
        "}}"
      ],
      [
        "_{n",
        ","
      ],
      [
        "^{2}}{",
        "c^{2}}"
      ],
      [
        "F",
        "="
      ],
      [
        "_{k",
        "},"
      ],
      [
        "|",
        "a"
      ],
      [
        "|",
        "+"
      ],
      [
        "_{x",
        "}("
      ],
      [
        "{U",
        "}"
      ],
      [
        "}}",
        "}={"
      ],
      [
        "(n",
        ")="
      ],
      [
        "\\",
        "})"
      ],
      [
        "f(",
        "z"
      ],
      [
        "(p",
        ")"
      ],
      [
        "u",
        "r"
      ],
      [
        "ngle",
        "ftrightarrow"
      ],
      [
        "a",
        "^{"
      ],
      [
        "(",
        "-1)"
      ],
      [
        "\\,\\,",
        "\\,"
      ],
      [
        "!",
        "}{"
      ],
      [
        "{",
        "ad"
      ],
      [
        "ra",
        "ce"
      ],
      [
        "9",
        "7"
      ],
      [
        "y",
        "_{2}"
      ],
      [
        "E",
        "("
      ],
      [
        "Q",
        ")"
      ],
      [
        "t",
        "h"
      ],
      [
        "b",
        "^{2}"
      ],
      [
        "i",
        "a"
      ],
      [
        "]",
        "{"
      ],
      [
        "0",
        "\\}"
      ],
      [
        "_{",
        "D"
      ],
      [
        "b",
        "_{1}"
      ],
      [
        "\\le",
        "ftrightarrow"
      ],
      [
        "1111",
        "11"
      ],
      [
        "_{a",
        "b"
      ],
      [
        "&",
        "0&"
      ],
      [
        "(i",
        ")"
      ],
      [
        "S",
        "("
      ],
      [
        "I",
        ")"
      ],
      [
        "p",
        "_{2}"
      ],
      [
        "x",
        "_{1},"
      ],
      [
        "{R",
        "}^{"
      ],
      [
        "p",
        ","
      ],
      [
        "_{",
        "G"
      ],
      [
        "i",
        "c"
      ],
      [
        "{",
        "V_{"
      ],
      [
        ")=",
        "-"
      ],
      [
        "6",
        "3"
      ],
      [
        "z",
        "}{"
      ],
      [
        "_{3",
        "}}"
      ],
      [
        "{9",
        "}{"
      ],
      [
        "+",
        "x"
      ],
      [
        "1",
        "}}{"
      ],
      [
        "p",
        "}}"
      ],
      [
        "+",
        "m"
      ],
      [
        "(1",
        ")}"
      ],
      [
        "(x)",
        "}{"
      ],
      [
        "R",
        "T"
      ],
      [
        "{d",
        "e"
      ],
      [
        "'",
        "("
      ],
      [
        "}^{",
        "-"
      ],
      [
        "000",
        "}{"
      ],
      [
        "{1",
        "0000"
      ],
      [
        "_{j",
        "}("
      ],
      [
        "2222",
        "22"
      ],
      [
        "\\big",
        "op"
      ],
      [
        "(u",
        ")"
      ],
      [
        "\\bigop",
        "lus"
      ],
      [
        "(t",
        ","
      ],
      [
        "a",
        "_{0}"
      ],
      [
        "}=",
        "("
      ],
      [
        "_{i}",
        "|"
      ],
      [
        "n",
        "}("
      ],
      [
        "_{j",
        "=0}^{"
      ],
      [
        "6",
        "."
      ],
      [
        "C",
        "="
      ],
      [
        "}}",
        "["
      ],
      [
        "A",
        "_{1}"
      ],
      [
        "ri",
        "angle"
      ],
      [
        "\\",
        "up"
      ],
      [
        "_{n",
        "}(x)"
      ],
      [
        "{",
        "0}"
      ],
      [
        "-1",
        "/"
      ],
      [
        "^{n",
        "+1}"
      ],
      [
        "(x,y",
        ")="
      ],
      [
        "~",
        "."
      ],
      [
        "{c",
        "}{"
      ],
      [
        "\\x",
        "rightarrow"
      ],
      [
        "{arra",
        "y}}"
      ],
      [
        "d",
        "V"
      ],
      [
        "z",
        "^{2}"
      ],
      [
        "^{",
        "s"
      ],
      [
        "}}{",
        "2}}"
      ],
      [
        "+",
        "B"
      ],
      [
        "{J",
        "}"
      ],
      [
        "{bmatrix}",
        "1&"
      ],
      [
        "{X",
        "}}"
      ],
      [
        "{e",
        "}}"
      ],
      [
        "5",
        ","
      ],
      [
        "_",
        "*"
      ],
      [
        "4",
        "&"
      ],
      [
        "\\over",
        "set"
      ],
      [
        "{t",
        "}{"
      ],
      [
        "9",
        "8"
      ],
      [
        "\\up",
        "arrow"
      ],
      [
        "[",
        "t"
      ],
      [
        "a",
        ","
      ],
      [
        "{c",
        "o"
      ],
      [
        "_{3",
        "}="
      ],
      [
        "y",
        "^{2}}"
      ],
      [
        "_{ij",
        "}="
      ],
      [
        "\\Lo",
        "ngleftrightarrow"
      ],
      [
        "},",
        "{"
      ],
      [
        "}})",
        "^{2}"
      ],
      [
        "e^{",
        "x}"
      ],
      [
        "B",
        "="
      ],
      [
        "}(",
        "k"
      ],
      [
        "_{0}",
        "^{2}"
      ],
      [
        "6",
        "}}{"
      ],
      [
        "L",
        "="
      ],
      [
        "k",
        "}}"
      ],
      [
        "(t)",
        ")"
      ],
      [
        "\\;",
        "{"
      ],
      [
        "v",
        "_{i}"
      ],
      [
        "^{3",
        "})"
      ],
      [
        "4",
        "."
      ],
      [
        "_{",
        "R}"
      ],
      [
        "4",
        "}}"
      ],
      [
        "k",
        "-1}"
      ],
      [
        "-1",
        ")}"
      ],
      [
        "-",
        "d"
      ],
      [
        "F",
        ")"
      ],
      [
        "|",
        "0"
      ],
      [
        "Z",
        ")"
      ],
      [
        "\\o",
        "int"
      ],
      [
        "s",
        "}{"
      ],
      [
        "\\l",
        "l"
      ],
      [
        "C",
        "^{"
      ],
      [
        "},",
        "\\"
      ],
      [
        "}(",
        "z)"
      ],
      [
        "-1",
        "/2}"
      ],
      [
        "-",
        "5"
      ],
      [
        "M",
        "="
      ],
      [
        "_{2}",
        "^{2}"
      ],
      [
        "]",
        "."
      ],
      [
        "1",
        "-{"
      ],
      [
        "co",
        "s"
      ],
      [
        "}}",
        "x"
      ],
      [
        "{1}{2",
        "}}{"
      ],
      [
        "k",
        "}{"
      ],
      [
        "c",
        "t"
      ],
      [
        "^{-1}",
        ")"
      ],
      [
        "{f",
        "}}"
      ],
      [
        "_{i,",
        "j}"
      ],
      [
        "^{+",
        "}"
      ],
      [
        "y",
        "^{"
      ],
      [
        "{",
        "t}"
      ],
      [
        "k",
        "="
      ],
      [
        "{a",
        "}}"
      ],
      [
        "B",
        ","
      ],
      [
        "k",
        "^{2}"
      ],
      [
        "_{i}",
        "+"
      ],
      [
        "\\bigg",
        "l"
      ],
      [
        "Q",
        "="
      ],
      [
        "\\t",
        "riangle"
      ],
      [
        "2",
        "{"
      ],
      [
        "_{n",
        "}+"
      ],
      [
        ",",
        "z)"
      ],
      [
        "s",
        "s"
      ],
      [
        "z",
        "}}"
      ],
      [
        "0",
        "<"
      ],
      [
        "}(",
        "A"
      ],
      [
        "f(",
        "z)"
      ],
      [
        "V",
        ","
      ],
      [
        "_{",
        "Y"
      ],
      [
        "}^{",
        "*"
      ],
      [
        "0.",
        "8"
      ],
      [
        "ep",
        "h"
      ],
      [
        "1,",
        "2,"
      ],
      [
        "9",
        "6"
      ],
      [
        "\\al",
        "eph"
      ],
      [
        "(1",
        "+{"
      ],
      [
        "w",
        ")"
      ],
      [
        "b",
        "="
      ],
      [
        "{",
        "(2"
      ],
      [
        "(n",
        ","
      ],
      [
        "^{",
        "("
      ],
      [
        "(x,",
        "t)"
      ],
      [
        "c",
        "="
      ],
      [
        "_{",
        "H"
      ],
      [
        "}(X",
        ","
      ],
      [
        "ta",
        "ck"
      ],
      [
        "L",
        ")"
      ],
      [
        "{",
        "ra"
      ],
      [
        "^{4",
        "}}"
      ],
      [
        "}{dt",
        "}="
      ],
      [
        "3",
        "}}{"
      ],
      [
        "P",
        ")"
      ],
      [
        "a",
        ",b"
      ],
      [
        "|",
        ")"
      ],
      [
        "]",
        "^{"
      ],
      [
        "\\,\\,",
        "\\,\\,"
      ],
      [
        "+1",
        "}{"
      ],
      [
        "^{2}+",
        "2"
      ],
      [
        "{Y",
        "}"
      ],
      [
        "(",
        "-{"
      ],
      [
        "5",
        "}}{"
      ],
      [
        "O",
        "(n"
      ],
      [
        "|",
        "S"
      ],
      [
        "(a",
        ",b"
      ],
      [
        "_{",
        "{"
      ],
      [
        "/",
        "n"
      ],
      [
        "G",
        "="
      ],
      [
        "i",
        "=1,"
      ],
      [
        "}^{",
        "3}"
      ],
      [
        "-",
        "s"
      ],
      [
        "[",
        "3"
      ],
      [
        ",",
        "0"
      ],
      [
        "F",
        "(x)"
      ],
      [
        "b",
        "race"
      ],
      [
        "_{i",
        "}{"
      ],
      [
        "}",
        "&"
      ],
      [
        "F",
        "_{1}"
      ],
      [
        "\\s",
        "tack"
      ],
      [
        "\\stack",
        "rel"
      ],
      [
        "v",
        "^{2}"
      ],
      [
        "u",
        "="
      ],
      [
        "}=",
        "\\{"
      ],
      [
        ")",
        "("
      ],
      [
        "{1",
        "5"
      ],
      [
        "8",
        "}{"
      ],
      [
        "\\bigg",
        "r"
      ],
      [
        "-1",
        "}}{"
      ],
      [
        "{3",
        "}{2}}"
      ],
      [
        "n",
        "^{2}"
      ],
      [
        "[",
        "-"
      ],
      [
        "{L",
        "}}"
      ],
      [
        "7",
        "."
      ],
      [
        "_{",
        "T}"
      ],
      [
        "m",
        "_{1}"
      ],
      [
        "_{",
        "C}"
      ],
      [
        "_{3",
        "}("
      ],
      [
        "0.",
        "4"
      ],
      [
        "m",
        "}{"
      ],
      [
        "{R",
        "}}"
      ],
      [
        "(n",
        ")}"
      ],
      [
        "K",
        "="
      ],
      [
        "Z",
        "}"
      ],
      [
        "_{n}",
        "]"
      ],
      [
        "{H",
        "}}"
      ],
      [
        "H",
        "="
      ],
      [
        "+",
        "j"
      ],
      [
        "5",
        "6"
      ],
      [
        "D",
        ")"
      ],
      [
        "x",
        "})"
      ],
      [
        "{1}{",
        "n}"
      ],
      [
        "(",
        "W"
      ],
      [
        "m",
        "^{2}"
      ],
      [
        "00",
        "}{"
      ],
      [
        "_{j",
        "=1}^{n}"
      ],
      [
        "t",
        "_{"
      ],
      [
        "{1}{",
        "1-"
      ],
      [
        "(2",
        ","
      ],
      [
        "_{t",
        "},"
      ],
      [
        "_{p",
        "}}"
      ],
      [
        "\\tan",
        "h"
      ],
      [
        "/",
        "c"
      ],
      [
        "w",
        "_{i}"
      ],
      [
        "u",
        "t}"
      ],
      [
        "^{",
        "r"
      ],
      [
        "in",
        "g"
      ],
      [
        "b",
        "_{2}"
      ],
      [
        "x",
        ",y"
      ],
      [
        "\\s",
        "ec"
      ],
      [
        "^{*",
        "}("
      ],
      [
        "Q",
        "}"
      ],
      [
        "^{n",
        "}("
      ],
      [
        "\\d",
        "eg"
      ],
      [
        "+1",
        ")}"
      ],
      [
        "_{3",
        "}+"
      ],
      [
        "^{4",
        "}+"
      ],
      [
        "2",
        "x"
      ],
      [
        "V",
        "("
      ],
      [
        "9",
        "}}{"
      ],
      [
        "s",
        "c"
      ],
      [
        "{b",
        "}{"
      ],
      [
        "[{t}]",
        "{2}}"
      ],
      [
        "W",
        "}"
      ],
      [
        "{C",
        "}}"
      ],
      [
        "m",
        "}("
      ],
      [
        "\\\\",
        "&={"
      ],
      [
        "+1",
        ")}{"
      ],
      [
        "}(t",
        ")="
      ],
      [
        "{d",
        "}}"
      ],
      [
        "{R",
        "e}"
      ],
      [
        "C",
        "_{1}"
      ],
      [
        "{1}{",
        "3}"
      ],
      [
        "t",
        "^{2}}"
      ],
      [
        "{m",
        "}{"
      ],
      [
        "l",
        "n"
      ],
      [
        "s",
        "="
      ],
      [
        "^{2",
        "n"
      ],
      [
        "\\l",
        "ceil"
      ],
      [
        "{z",
        "}}"
      ],
      [
        "S",
        "}{"
      ],
      [
        "{r",
        "})"
      ],
      [
        "{E}",
        "["
      ],
      [
        "2",
        "n"
      ],
      [
        "_{",
        "K"
      ],
      [
        "\\r",
        "ceil"
      ],
      [
        "(3",
        ")"
      ],
      [
        "K",
        ")"
      ],
      [
        "_",
        "+"
      ],
      [
        "|",
        "f"
      ],
      [
        "^{2}}{",
        "2}"
      ],
      [
        "|",
        "1"
      ],
      [
        "_{",
        "I"
      ],
      [
        "L",
        "("
      ],
      [
        "\\b",
        "f"
      ],
      [
        "_{t",
        "-1}"
      ],
      [
        "(x",
        "_{1}"
      ],
      [
        "{x",
        "}})"
      ],
      [
        "{p",
        "}{"
      ],
      [
        "|x",
        "|"
      ],
      [
        "0",
        "\\"
      ],
      [
        "c",
        "}{"
      ],
      [
        "{v",
        "}{"
      ],
      [
        "ow",
        "n"
      ],
      [
        "t",
        "}="
      ],
      [
        "X",
        "_{1}"
      ],
      [
        "v",
        "_{1}"
      ],
      [
        "{1}{",
        "3}}"
      ],
      [
        "[X",
        "]"
      ],
      [
        ")",
        "}^{"
      ],
      [
        "t",
        "t"
      ],
      [
        "_{c",
        "}="
      ],
      [
        "t",
        "^{2}"
      ],
      [
        "^{",
        "a}"
      ],
      [
        "_{1",
        "0}"
      ],
      [
        "(1",
        "0"
      ],
      [
        "\\\\[",
        "6"
      ],
      [
        "r",
        "_{1}"
      ],
      [
        "\\sup",
        "set"
      ],
      [
        "A",
        "_{i}"
      ],
      [
        "t",
        "})"
      ],
      [
        "{",
        "\\"
      ],
      [
        "m",
        "="
      ],
      [
        "{z",
        "}{"
      ],
      [
        "-",
        "j"
      ],
      [
        "-1",
        ")}{"
      ],
      [
        "I",
        "="
      ],
      [
        "R",
        "_"
      ],
      [
        "c",
        "}}"
      ],
      [
        "_{",
        "V}"
      ],
      [
        "5",
        "."
      ],
      [
        "^{",
        "10"
      ],
      [
        "{S",
        "}}"
      ],
      [
        "\\i",
        "int"
      ],
      [
        "0",
        "}}"
      ],
      [
        "^{2}}{",
        "2}}"
      ],
      [
        "(A",
        ","
      ],
      [
        "-a",
        ")"
      ],
      [
        "s",
        "^{2}"
      ],
      [
        "[x",
        "]"
      ],
      [
        "a",
        "^{2}}"
      ],
      [
        "b",
        "}}"
      ],
      [
        "{y",
        "}{"
      ],
      [
        "{v",
        "matrix}"
      ],
      [
        "_{x",
        "x}"
      ],
      [
        "4",
        "7"
      ],
      [
        "9",
        "."
      ],
      [
        "C",
        "}}"
      ],
      [
        "4",
        "}+"
      ],
      [
        "^{",
        "5}"
      ],
      [
        "T",
        "="
      ],
      [
        "t",
        ","
      ],
      [
        "\\d",
        "dots"
      ],
      [
        "(G",
        ")"
      ],
      [
        "m",
        "_{2}"
      ],
      [
        ")=",
        "2"
      ],
      [
        "{in",
        "}"
      ],
      [
        "N",
        "-1}"
      ],
      [
        "a",
        "}}"
      ],
      [
        "\\L",
        "e"
      ],
      [
        "'",
        "(x)"
      ],
      [
        "M",
        ","
      ],
      [
        "{1}{",
        "n}}"
      ],
      [
        "A",
        "B"
      ],
      [
        "y",
        "_{"
      ],
      [
        "W",
        "_{"
      ],
      [
        "(x",
        "_{i})"
      ],
      [
        "{O",
        "}}_{"
      ],
      [
        "(",
        "Q"
      ],
      [
        ",",
        "f"
      ],
      [
        "T",
        "})"
      ],
      [
        "\\",
        "y"
      ],
      [
        "_{j",
        "}}{"
      ],
      [
        "+",
        "r"
      ],
      [
        "-",
        "v"
      ],
      [
        "6",
        ")"
      ],
      [
        "h",
        "}}"
      ],
      [
        "^{",
        "j}"
      ],
      [
        "a",
        "n"
      ],
      [
        "{d",
        "}{dx}"
      ],
      [
        "a",
        "x"
      ],
      [
        "5",
        ")"
      ],
      [
        "{r",
        "e"
      ],
      [
        "8",
        "."
      ],
      [
        "}(",
        "s)"
      ],
      [
        "{1",
        "2"
      ],
      [
        "}^{",
        "i"
      ],
      [
        "J",
        "_{"
      ],
      [
        "^{4",
        "}}{"
      ],
      [
        "d",
        "^{3}"
      ],
      [
        "-",
        "q"
      ],
      [
        "^{-1}",
        "("
      ],
      [
        "-",
        "u"
      ],
      [
        "k",
        "_{1}"
      ],
      [
        "{u",
        "}}"
      ],
      [
        ":",
        "={"
      ],
      [
        "1&",
        "0&"
      ],
      [
        "c",
        "d"
      ],
      [
        "+1",
        ","
      ],
      [
        ")^{",
        "1/"
      ],
      [
        "N",
        "="
      ],
      [
        "_{",
        "N}"
      ],
      [
        "}{2}}",
        ")"
      ],
      [
        "(v",
        ")"
      ],
      [
        "{Sp",
        "ec"
      ],
      [
        "-",
        "k}"
      ],
      [
        "1",
        "{"
      ],
      [
        "8",
        "7"
      ],
      [
        "{",
        "({"
      ],
      [
        "}+{",
        "}"
      ],
      [
        "{",
        "e^{-"
      ],
      [
        "_{1",
        "}}^{"
      ],
      [
        "{R",
        "e"
      ],
      [
        "{1}{4",
        "}}"
      ],
      [
        "{arra",
        "y"
      ],
      [
        "\\Le",
        "ftrightarrow"
      ],
      [
        "}{2}",
        ")"
      ],
      [
        "y}{",
        "dx"
      ],
      [
        "1",
        "/2}"
      ],
      [
        "(",
        "Z"
      ],
      [
        "in",
        "}"
      ],
      [
        "_{",
        "E}"
      ],
      [
        "\\\\[6",
        "pt]"
      ],
      [
        "r",
        "_{2}"
      ],
      [
        "\\bigc",
        "ap"
      ],
      [
        "(a,",
        "b)"
      ],
      [
        "4",
        "9"
      ],
      [
        "(u",
        ",v"
      ],
      [
        "_{",
        "q}"
      ],
      [
        "^{",
        "b"
      ],
      [
        "}{",
        "R"
      ],
      [
        "n",
        "_{2}"
      ],
      [
        "x",
        "(t)"
      ],
      [
        "+",
        "C"
      ],
      [
        "w",
        "}{"
      ],
      [
        ",",
        "1}"
      ],
      [
        "Y",
        "="
      ],
      [
        "x",
        "^{n}"
      ],
      [
        "\\Big",
        "r"
      ],
      [
        ",",
        "N"
      ],
      [
        "|",
        "V"
      ],
      [
        "|",
        "}}"
      ],
      [
        "^{n",
        "}}{"
      ],
      [
        "\\under",
        "brace"
      ],
      [
        "{g",
        "}}"
      ],
      [
        "F",
        "^{"
      ],
      [
        "[",
        "f"
      ],
      [
        "}(",
        "y"
      ],
      [
        "{7",
        "}{"
      ],
      [
        "{arra",
        "y}"
      ],
      [
        "2",
        "^{2"
      ],
      [
        "{8",
        "}{"
      ],
      [
        "<",
        "0"
      ],
      [
        "2",
        "^{-"
      ],
      [
        "A",
        "_{2}"
      ],
      [
        "{6",
        "}{"
      ],
      [
        "d",
        ")"
      ],
      [
        "i",
        ",j"
      ],
      [
        "_{",
        "+"
      ],
      [
        "L",
        "}}"
      ],
      [
        "_{0",
        "}}^{"
      ],
      [
        "_{i=1}^{",
        "k}"
      ],
      [
        "S",
        "^{"
      ],
      [
        "{y",
        "}}"
      ],
      [
        "X",
        ","
      ],
      [
        "q",
        "="
      ],
      [
        "^{2}}",
        "})"
      ],
      [
        "R",
        "^{2}"
      ],
      [
        "K",
        "("
      ],
      [
        "n",
        "!"
      ],
      [
        "x",
        "_{3}"
      ],
      [
        "G",
        ","
      ],
      [
        "a",
        "_{1},"
      ],
      [
        "/",
        "("
      ],
      [
        "E",
        "_"
      ],
      [
        "}^{",
        "+"
      ],
      [
        "y",
        "+"
      ],
      [
        "{",
        "h}"
      ],
      [
        "_{",
        "L}"
      ],
      [
        "{1",
        "1"
      ],
      [
        "}^{2}}",
        "}"
      ],
      [
        "{c",
        "on"
      ],
      [
        "p",
        "o"
      ],
      [
        "|",
        "E"
      ],
      [
        ")=",
        "("
      ],
      [
        "2",
        "\\,"
      ],
      [
        "_{a",
        "b}"
      ],
      [
        "5",
        "8"
      ],
      [
        "[",
        "y"
      ],
      [
        "N",
        "}{"
      ],
      [
        "x",
        "^{3}+"
      ],
      [
        "{",
        "id"
      ],
      [
        "\\math",
        "rel"
      ],
      [
        "_{n}",
        "-"
      ],
      [
        "a",
        "ra"
      ],
      [
        "\\Big",
        "l"
      ],
      [
        "6",
        ","
      ],
      [
        "X",
        "_{2}"
      ],
      [
        "f",
        "_{2}"
      ],
      [
        "{P",
        "}("
      ],
      [
        "{1}{",
        "4}"
      ],
      [
        "^{*",
        "})"
      ],
      [
        "_{o",
        "}"
      ],
      [
        "{D",
        "}}"
      ],
      [
        "^{2}+",
        "{"
      ],
      [
        "_{i})",
        "="
      ],
      [
        "1",
        "+{"
      ],
      [
        "[",
        "k"
      ],
      [
        "}}",
        "}="
      ],
      [
        "\\o",
        "dot"
      ],
      [
        "}},",
        "\\"
      ],
      [
        "+",
        "p"
      ],
      [
        "x",
        "_{j}"
      ],
      [
        "d",
        "_{1}"
      ],
      [
        "p",
        "^{"
      ],
      [
        "}^{",
        "*}"
      ],
      [
        "{P",
        "}}"
      ],
      [
        "{N",
        "}}"
      ],
      [
        "_{i=1}^{",
        "m}"
      ],
      [
        "}{4",
        "}}"
      ],
      [
        "k",
        "}("
      ],
      [
        "{",
        "44"
      ],
      [
        "0.",
        "7"
      ],
      [
        "{F",
        "}_{"
      ],
      [
        "T",
        "^{"
      ],
      [
        "n",
        ","
      ],
      [
        "_{3",
        "}}{"
      ],
      [
        "H",
        "("
      ],
      [
        "x",
        "^{n"
      ],
      [
        "v",
        "e"
      ],
      [
        "{1}{",
        "k"
      ],
      [
        "f",
        "\\"
      ],
      [
        "_{w",
        "}"
      ],
      [
        "ac",
        "k"
      ],
      [
        "U",
        ")"
      ],
      [
        "{1}{",
        "1+"
      ],
      [
        "\\under",
        "set"
      ],
      [
        "x",
        "}}{"
      ],
      [
        "|",
        "B"
      ],
      [
        "igh",
        "t"
      ],
      [
        "(t)",
        ","
      ],
      [
        "+",
        "("
      ],
      [
        "d",
        "}}"
      ],
      [
        "g",
        "="
      ],
      [
        "x",
        "}="
      ],
      [
        "\\!\\!",
        "\\!"
      ],
      [
        ".",
        "{"
      ],
      [
        "4",
        ")"
      ],
      [
        "7",
        "}}{"
      ],
      [
        "_{j",
        "}-"
      ],
      [
        "S",
        ","
      ],
      [
        "[",
        "2"
      ],
      [
        "_{1",
        "}},"
      ],
      [
        "{c",
        "}}"
      ],
      [
        "ec",
        "t"
      ],
      [
        "_{p",
        "})"
      ],
      [
        "{e",
        "}_{"
      ],
      [
        "_{",
        "V"
      ],
      [
        "}}=",
        "-"
      ],
      [
        "R",
        "_{1}"
      ],
      [
        "}(",
        "f"
      ],
      [
        "^{3",
        "}}}"
      ],
      [
        "&",
        "a"
      ],
      [
        "[",
        "}"
      ],
      [
        "_{",
        "E"
      ],
      [
        "_{1",
        "}{"
      ],
      [
        "x",
        "_{i}}"
      ],
      [
        "f(",
        "y)"
      ],
      [
        "i",
        "se"
      ],
      [
        "x",
        "^{2}-"
      ],
      [
        "d",
        "r"
      ],
      [
        "f(",
        "a"
      ],
      [
        ")^{",
        "3}"
      ],
      [
        "{m",
        "}}"
      ],
      [
        "(T",
        ")"
      ],
      [
        "{T",
        "r}"
      ],
      [
        "e^{-",
        "{"
      ],
      [
        "4",
        "}}{"
      ],
      [
        "(M",
        ")"
      ],
      [
        "(E",
        ")"
      ],
      [
        "\\arc",
        "cos"
      ],
      [
        "Z",
        "="
      ],
      [
        "u",
        "_{1}"
      ],
      [
        "t",
        "_{1}"
      ],
      [
        "-1}",
        ")"
      ],
      [
        "^{2}+",
        "b"
      ],
      [
        "/",
        "p"
      ],
      [
        "5",
        "7"
      ],
      [
        "}^{",
        "T}"
      ],
      [
        "_{t",
        "}}"
      ],
      [
        "_{k=0}^{",
        "n}"
      ],
      [
        "_{c",
        "}^{"
      ],
      [
        "\\,d",
        "y"
      ],
      [
        "R",
        "^{"
      ],
      [
        "D",
        "="
      ],
      [
        "_{n",
        "}(x"
      ],
      [
        "e",
        ")"
      ],
      [
        "{W",
        "}"
      ],
      [
        "P",
        "}{"
      ],
      [
        "u",
        "_{i}"
      ],
      [
        "t",
        "^{"
      ],
      [
        "(1-",
        "p"
      ],
      [
        "&",
        "0"
      ],
      [
        "+",
        "h"
      ],
      [
        "c",
        "_{i}"
      ],
      [
        ")}",
        "."
      ],
      [
        "(s",
        ")="
      ],
      [
        "{",
        "33"
      ],
      [
        "_{n",
        "=1}^"
      ],
      [
        "_{0}",
        "-"
      ],
      [
        "(X",
        ",Y"
      ],
      [
        "+1",
        "}}{"
      ],
      [
        "l",
        "}}"
      ],
      [
        "_{m",
        "}}"
      ],
      [
        "_{",
        "F"
      ],
      [
        "{k",
        "}}"
      ],
      [
        "/",
        "2}}"
      ],
      [
        "P",
        "_{1}"
      ],
      [
        "_{k",
        "}}{"
      ],
      [
        "+2",
        ")"
      ],
      [
        ",",
        "2"
      ],
      [
        "-",
        "8"
      ],
      [
        "T",
        "("
      ],
      [
        "x",
        "_{i"
      ],
      [
        "A",
        "_"
      ],
      [
        "d",
        "^{2}"
      ],
      [
        "_{i",
        "="
      ],
      [
        "{2",
        "}{3"
      ],
      [
        "C",
        "_{2}"
      ],
      [
        "P",
        "_"
      ],
      [
        "|",
        "n"
      ],
      [
        "al",
        "}"
      ],
      [
        "-1",
        "\\\\"
      ],
      [
        "e^{-",
        "2"
      ],
      [
        "{v",
        "}}"
      ],
      [
        "P",
        "(X"
      ],
      [
        "f",
        "f"
      ],
      [
        "})",
        "-"
      ],
      [
        "u",
        "_{"
      ],
      [
        "}(",
        "r"
      ],
      [
        "_{n}",
        "\\}"
      ],
      [
        "0.",
        "00"
      ],
      [
        "/",
        "m"
      ],
      [
        "b",
        ","
      ],
      [
        "(x",
        ";"
      ],
      [
        "}(",
        "p"
      ],
      [
        "_{p",
        "}="
      ],
      [
        "^{2}+",
        "y"
      ],
      [
        "(g",
        ")"
      ],
      [
        "c",
        "h"
      ],
      [
        "2",
        "\\\\"
      ],
      [
        "el",
        "s"
      ],
      [
        "{aligned}",
        "&"
      ],
      [
        "1",
        "2}"
      ],
      [
        "a",
        "_{k}"
      ],
      [
        "|",
        "y"
      ],
      [
        "{1}{",
        "r"
      ],
      [
        "}+",
        "2"
      ],
      [
        "|",
        "\\,"
      ],
      [
        "{q",
        "}}"
      ],
      [
        "F",
        "}{"
      ],
      [
        "\\",
        "N"
      ],
      [
        "f(",
        "t"
      ],
      [
        "{Hom",
        "}"
      ],
      [
        "^{",
        "c"
      ],
      [
        "(t)",
        "}"
      ],
      [
        "\\ar",
        "g"
      ],
      [
        "(x)",
        ","
      ],
      [
        "[",
        "("
      ],
      [
        "(",
        "b)"
      ],
      [
        "})",
        "]"
      ],
      [
        "\\o",
        "minus"
      ],
      [
        "\\mod",
        "els"
      ],
      [
        "W",
        "="
      ],
      [
        "u",
        ","
      ],
      [
        "(i",
        ")}"
      ],
      [
        "[",
        "4"
      ],
      [
        "k",
        "_{2}"
      ],
      [
        "(2",
        ")}"
      ],
      [
        "{k",
        "}{"
      ],
      [
        "-",
        "A"
      ],
      [
        "x",
        "_{n})"
      ],
      [
        "_{t",
        "+1}"
      ],
      [
        "-",
        "B"
      ],
      [
        "m",
        ","
      ],
      [
        "=",
        "\\"
      ],
      [
        "T",
        "_"
      ],
      [
        "_{i",
        "}(x"
      ],
      [
        "(x)",
        "}"
      ],
      [
        "/",
        "k"
      ],
      [
        "H",
        "_{2}"
      ],
      [
        "e",
        "_{i}"
      ],
      [
        "z",
        "^{2}}"
      ],
      [
        "(x",
        ")={"
      ],
      [
        "P",
        "}}"
      ],
      [
        "g",
        "}}"
      ],
      [
        "\\{",
        "\\{"
      ],
      [
        "e^{",
        "j"
      ],
      [
        "0.",
        "2"
      ],
      [
        "x",
        "\\"
      ],
      [
        "{1}{",
        "p"
      ],
      [
        "\\b",
        "ack"
      ],
      [
        "_{n",
        "}}}"
      ],
      [
        "{2",
        "}}{"
      ],
      [
        "sla",
        "sh"
      ],
      [
        "{dy",
        "}{dx}"
      ],
      [
        "[3",
        "]"
      ],
      [
        "\\d",
        "im"
      ],
      [
        "&=",
        "&"
      ],
      [
        "{V",
        "ar}"
      ],
      [
        "e",
        "_{1}"
      ],
      [
        "_{s",
        "}}"
      ],
      [
        "4",
        "3"
      ],
      [
        "^{",
        "q"
      ],
      [
        "-1",
        "0"
      ],
      [
        "_{x",
        "}="
      ],
      [
        "}(",
        "0)"
      ],
      [
        "|",
        "c"
      ],
      [
        "[A",
        "]"
      ],
      [
        "[",
        "S"
      ],
      [
        "0",
        ")="
      ],
      [
        "n",
        "_{i}"
      ],
      [
        "u",
        "'"
      ],
      [
        "{1",
        "6"
      ],
      [
        "+1",
        "0"
      ],
      [
        "(q",
        ")"
      ],
      [
        ",",
        "T"
      ],
      [
        "b",
        "_{i}"
      ],
      [
        "w",
        "_{"
      ],
      [
        "her",
        "e"
      ],
      [
        ",",
        "A"
      ],
      [
        "7",
        ","
      ],
      [
        "+",
        "5"
      ],
      [
        "{d",
        "x}{"
      ],
      [
        "}(",
        "2"
      ],
      [
        "f",
        "_{i}"
      ],
      [
        "{",
        "le"
      ],
      [
        "_{",
        "M}"
      ],
      [
        "=0",
        "}"
      ],
      [
        "sla",
        "nt"
      ],
      [
        "P",
        "(A"
      ],
      [
        "[",
        "i"
      ],
      [
        "u",
        ",v"
      ],
      [
        "^{-",
        "^{-"
      ],
      [
        "{r",
        "},"
      ],
      [
        "(m",
        ")"
      ],
      [
        "u",
        "^{"
      ],
      [
        "/",
        "a"
      ],
      [
        "~",
        ","
      ],
      [
        "_{i",
        "}={"
      ],
      [
        "_{x",
        "}}{"
      ],
      [
        "\\back",
        "slash"
      ],
      [
        "8",
        "}}{"
      ],
      [
        "(r",
        ","
      ],
      [
        ")",
        "^{2}}"
      ],
      [
        "R",
        "_{2}"
      ],
      [
        "er",
        "}"
      ],
      [
        "8",
        "9"
      ],
      [
        "b",
        "^{2}}"
      ],
      [
        "r",
        "}{"
      ],
      [
        "^{",
        "d}"
      ],
      [
        "(k",
        ")}"
      ],
      [
        "own",
        "arrow"
      ],
      [
        "/",
        "d"
      ],
      [
        "x",
        "\\,"
      ],
      [
        "D",
        "^{"
      ],
      [
        "G",
        "("
      ],
      [
        "H",
        ")"
      ],
      [
        "_{0",
        "1}"
      ],
      [
        "}(",
        "T"
      ],
      [
        "{s",
        "}}"
      ],
      [
        "-",
        "f"
      ],
      [
        "i",
        "ty"
      ],
      [
        "^{n",
        "}="
      ],
      [
        "f(x)",
        "dx"
      ],
      [
        ",t",
        ")="
      ],
      [
        "_{i}",
        "^{2}"
      ],
      [
        "^{2}-",
        "4"
      ],
      [
        "\\arc",
        "sin"
      ],
      [
        "P",
        "^{"
      ],
      [
        "{E",
        "}}"
      ],
      [
        "\\",
        "}="
      ],
      [
        "=1,",
        "2,"
      ],
      [
        "{",
        "(x"
      ],
      [
        "{",
        "j}"
      ],
      [
        "{n",
        "-1}{"
      ],
      [
        "r",
        "ho"
      ],
      [
        "_{1",
        "3}"
      ],
      [
        ",",
        "-"
      ],
      [
        "4",
        "6"
      ],
      [
        "s",
        "_{1}"
      ],
      [
        "{",
        "matrix"
      ],
      [
        "}",
        ":"
      ],
      [
        "\\var",
        "rho"
      ],
      [
        "}}=",
        "-{"
      ],
      [
        "\\d",
        "dot"
      ],
      [
        "}(x",
        ",y"
      ],
      [
        "8",
        "5"
      ],
      [
        "C",
        "("
      ],
      [
        "+",
        "v"
      ],
      [
        "X",
        "'"
      ],
      [
        "_{r",
        "})"
      ],
      [
        "d",
        "="
      ],
      [
        "3",
        "})"
      ],
      [
        "Y",
        "_{"
      ],
      [
        "0&0&",
        "0&"
      ],
      [
        "_{s",
        "}}{"
      ],
      [
        "}+",
        "1"
      ],
      [
        "_{x",
        "y"
      ],
      [
        "<",
        "1"
      ],
      [
        "f(",
        "X"
      ],
      [
        ",",
        "0)"
      ],
      [
        "_{n",
        "=0}^"
      ],
      [
        "_{2",
        "}{"
      ],
      [
        "^{*",
        "}="
      ],
      [
        "[",
        "H"
      ],
      [
        ",",
        "x)"
      ],
      [
        "8",
        "4"
      ],
      [
        "n",
        "_{1}"
      ],
      [
        "(a",
        "+b"
      ],
      [
        "{i",
        "}{"
      ],
      [
        "-",
        "E"
      ],
      [
        "C",
        ","
      ],
      [
        "_{j",
        "}}}"
      ],
      [
        "|z",
        "|"
      ],
      [
        "o",
        "ta"
      ],
      [
        "p",
        "}("
      ],
      [
        "{",
        "or"
      ],
      [
        "{bmatrix",
        "}}{"
      ],
      [
        "R",
        "}}"
      ],
      [
        "d",
        "S"
      ],
      [
        "k",
        "})"
      ],
      [
        "_{k",
        "}-"
      ],
      [
        "h",
        "("
      ],
      [
        "}{1",
        "0000"
      ],
      [
        ",",
        "n)"
      ],
      [
        "G",
        "^{"
      ],
      [
        "i",
        "})"
      ],
      [
        "k",
        "}="
      ],
      [
        "{5",
        "}}"
      ],
      [
        "(",
        "e^{"
      ],
      [
        "]",
        "]"
      ],
      [
        "_{",
        "d}"
      ],
      [
        "{1",
        "7"
      ],
      [
        ")",
        "}="
      ],
      [
        "L",
        "^{2}"
      ],
      [
        "\\d",
        "ownarrow"
      ],
      [
        "a",
        "_{2},"
      ],
      [
        "Y",
        ","
      ],
      [
        "{C",
        "o"
      ],
      [
        "(0",
        ")="
      ],
      [
        "5",
        "9"
      ],
      [
        "R",
        "("
      ],
      [
        "j",
        ")"
      ],
      [
        "\\B",
        "ox"
      ],
      [
        "}(",
        "y)"
      ],
      [
        "_{m",
        "}="
      ],
      [
        ":",
        "a"
      ],
      [
        "}^{",
        "0}"
      ],
      [
        "A",
        "("
      ],
      [
        "A",
        "}}"
      ],
      [
        "C",
        "l"
      ],
      [
        "P",
        ","
      ],
      [
        "{",
        "f("
      ],
      [
        "}(",
        "q"
      ],
      [
        "}^{",
        "k}"
      ],
      [
        "^{n",
        "}}{n"
      ],
      [
        "_{x",
        "y}"
      ],
      [
        "{O",
        "}_{"
      ],
      [
        "&",
        "b"
      ],
      [
        "n",
        "})"
      ],
      [
        "{pmatrix}",
        "a"
      ],
      [
        "_{r",
        "}}"
      ],
      [
        "-",
        "i}"
      ],
      [
        "z",
        "+"
      ],
      [
        "V",
        "_{1}"
      ],
      [
        "_{",
        "l}"
      ],
      [
        "(t)",
        "}{"
      ],
      [
        "{I",
        "m}"
      ],
      [
        "\\text",
        "it"
      ],
      [
        "\\i",
        "ota"
      ],
      [
        "-",
        "T"
      ],
      [
        "<",
        "{"
      ],
      [
        "a",
        "+b"
      ],
      [
        "~~",
        "~~"
      ],
      [
        "-",
        "I"
      ],
      [
        "p",
        "'"
      ],
      [
        "00",
        "0}"
      ],
      [
        "_{0}^{",
        "x}"
      ],
      [
        "{L",
        "}}_{"
      ],
      [
        ",",
        "g"
      ],
      [
        "v",
        "_"
      ],
      [
        "e",
        "^{2}"
      ],
      [
        "x",
        ")="
      ],
      [
        "{d",
        "}{dt}"
      ],
      [
        "v",
        "_{2}"
      ],
      [
        ")=",
        "\\{"
      ],
      [
        "-",
        "x)"
      ],
      [
        "4",
        "2"
      ],
      [
        "u",
        "b"
      ],
      [
        "\\;",
        "0"
      ],
      [
        "_{n})",
        "="
      ],
      [
        "i",
        "}="
      ],
      [
        "b",
        "}{"
      ],
      [
        "}}",
        "&"
      ],
      [
        "-1",
        "]"
      ],
      [
        "))",
        ")"
      ],
      [
        "\\\\[",
        "5"
      ],
      [
        "/",
        "K"
      ],
      [
        "(x",
        "_{i}"
      ],
      [
        "\\{1,",
        "2,"
      ],
      [
        "d",
        "A"
      ],
      [
        "_{",
        "g}"
      ],
      [
        "{3",
        "}{2}"
      ],
      [
        "{10",
        "}{"
      ],
      [
        "{d",
        "y}{dx"
      ],
      [
        "}(x,",
        "y)"
      ],
      [
        "r",
        "r"
      ],
      [
        "_{",
        "*"
      ],
      [
        "(x",
        "_{0})"
      ],
      [
        "0.",
        "6"
      ],
      [
        "^{2}}{c^{2}}",
        "}}"
      ],
      [
        "A",
        "}{"
      ],
      [
        "f",
        "_{n}"
      ],
      [
        "ot",
        "her"
      ],
      [
        "{2",
        "n"
      ],
      [
        "m",
        "_{i}"
      ],
      [
        "\\g",
        "g"
      ],
      [
        "x",
        ")^{"
      ],
      [
        "2}",
        ")"
      ],
      [
        "}(",
        "f)"
      ],
      [
        "{n",
        "}{2}"
      ],
      [
        "_{0}^{",
        "2"
      ],
      [
        "_{0}^{",
        "T}"
      ],
      [
        "_{r",
        "}="
      ],
      [
        "{I",
        "}}"
      ],
      [
        "(2",
        "k"
      ],
      [
        "x",
        "_{j}}"
      ],
      [
        "D",
        "}}"
      ],
      [
        "{",
        "er"
      ],
      [
        "x^{",
        "4}"
      ],
      [
        "_{n+1}",
        "="
      ],
      [
        "x",
        "_{2})"
      ],
      [
        "}{",
        "N"
      ],
      [
        "A",
        "C"
      ],
      [
        "2",
        "+"
      ],
      [
        "\\",
        "Q"
      ],
      [
        "t",
        "/"
      ],
      [
        "I",
        "_{1}"
      ],
      [
        "k",
        "_"
      ],
      [
        "{",
        "se"
      ],
      [
        "(",
        "6"
      ],
      [
        "U",
        "="
      ],
      [
        "f",
        "(x,y)"
      ],
      [
        "(a",
        "_{1},"
      ],
      [
        "{-",
        "}"
      ],
      [
        "B",
        "_{1}"
      ],
      [
        "\\",
        "a"
      ],
      [
        "|",
        ","
      ],
      [
        "{E",
        "x"
      ],
      [
        "{x}",
        ","
      ],
      [
        "_{s",
        "})"
      ],
      [
        "a",
        "}{"
      ],
      [
        "}})",
        ")"
      ],
      [
        "[",
        "G"
      ],
      [
        "d",
        "("
      ],
      [
        "{1",
        "3"
      ],
      [
        "\\}",
        "\\}"
      ],
      [
        "A",
        "^{-1}"
      ],
      [
        "D",
        "("
      ],
      [
        "[",
        "m"
      ],
      [
        "u",
        "n"
      ],
      [
        "[x",
        ",y"
      ],
      [
        "+",
        "s"
      ],
      [
        "_{0",
        "}{"
      ],
      [
        "_{c",
        "}}"
      ],
      [
        "B",
        "("
      ],
      [
        "b",
        "^{"
      ],
      [
        "u",
        "_{2}"
      ],
      [
        "_{i",
        "}(t)"
      ],
      [
        "{1}{",
        "x"
      ],
      [
        "\\varp",
        "i"
      ],
      [
        "{u",
        "}{"
      ],
      [
        "^{n",
        "},"
      ],
      [
        "_{2",
        "3}"
      ],
      [
        "^{5",
        "}}{"
      ],
      [
        "/",
        "3}"
      ],
      [
        "{n",
        "}{2}}"
      ],
      [
        "0&",
        "1\\\\"
      ],
      [
        "5",
        "}+"
      ],
      [
        ")}{",
        "2"
      ],
      [
        "-k",
        ")"
      ],
      [
        "-",
        "l"
      ],
      [
        "m",
        "/"
      ],
      [
        "10",
        "^{1"
      ],
      [
        "(i",
        ",j"
      ],
      [
        "C",
        "O"
      ],
      [
        "f",
        "(x,"
      ],
      [
        "f",
        "''"
      ],
      [
        "}(",
        "A)"
      ],
      [
        "-",
        "h"
      ],
      [
        "_{k",
        "}+"
      ],
      [
        "^{2}}",
        "}{"
      ],
      [
        "(X",
        "_{1},"
      ],
      [
        "\\\\[5",
        "pt]"
      ],
      [
        "^{2}}",
        ")"
      ],
      [
        "l",
        "le"
      ],
      [
        "y",
        ")="
      ],
      [
        "}}{",
        "{"
      ],
      [
        "}=",
        "-{"
      ],
      [
        "_{0",
        "}={"
      ],
      [
        "}})",
        "}{"
      ],
      [
        "w",
        "ise"
      ],
      [
        "^{3",
        "}}}}"
      ],
      [
        "(c",
        ")"
      ],
      [
        "\\",
        "at"
      ],
      [
        "(x",
        "_{0},"
      ],
      [
        "{and",
        "}"
      ],
      [
        "\\at",
        "op"
      ],
      [
        "D",
        ","
      ],
      [
        "k",
        ","
      ],
      [
        "F",
        "_{2}"
      ],
      [
        "s",
        "_{2}"
      ],
      [
        "t",
        "_{2}"
      ],
      [
        "\\|",
        "f"
      ],
      [
        "H",
        "^{1}"
      ],
      [
        "}}",
        "n"
      ],
      [
        "&",
        "0\\\\0&"
      ],
      [
        ")",
        "&="
      ],
      [
        "P",
        "_{2}"
      ],
      [
        "o",
        "k"
      ],
      [
        "t",
        "}+"
      ],
      [
        "(a",
        "+"
      ],
      [
        "{o",
        "ut"
      ],
      [
        "E",
        "}{"
      ],
      [
        "ot",
        "al"
      ],
      [
        "\\|",
        "x"
      ],
      [
        ":=",
        "\\{"
      ],
      [
        "_{t",
        "}+"
      ],
      [
        "{pmatrix}",
        "1&"
      ],
      [
        "(t",
        "-"
      ],
      [
        "M",
        "}{"
      ],
      [
        "s",
        "_{i}"
      ],
      [
        "_{n",
        "-2}"
      ],
      [
        "\\;\\;",
        "\\;"
      ],
      [
        "=",
        "\\,"
      ],
      [
        "[",
        "Z"
      ],
      [
        "_",
        "-"
      ],
      [
        "_{3",
        "}^{"
      ],
      [
        "_{n}",
        "|"
      ],
      [
        "),",
        "\\"
      ],
      [
        ")",
        "\\,d"
      ],
      [
        "n",
        "+"
      ],
      [
        "_{",
        "h}"
      ],
      [
        "-",
        "C"
      ],
      [
        "U",
        "}{"
      ],
      [
        "}})",
        "{"
      ],
      [
        "{s",
        "p"
      ],
      [
        "}{dt",
        "^{2}}"
      ],
      [
        "other",
        "wise"
      ],
      [
        "q",
        "_{1}"
      ],
      [
        "(1-",
        "p)"
      ],
      [
        "^{4",
        "}}}}"
      ],
      [
        "t",
        "_{i}"
      ],
      [
        "u",
        "^{2}"
      ],
      [
        "^{-1}",
        "="
      ],
      [
        "(V",
        ")"
      ],
      [
        "0",
        "{"
      ],
      [
        "c",
        ","
      ],
      [
        "q",
        "^{"
      ],
      [
        "{",
        "lo"
      ],
      [
        "^{2}",
        "]"
      ],
      [
        "}(",
        "S"
      ],
      [
        "'",
        "+"
      ],
      [
        "h",
        "}{"
      ],
      [
        "{2",
        "m"
      ],
      [
        "(",
        "B)"
      ],
      [
        "h",
        "="
      ],
      [
        "-",
        "P"
      ],
      [
        "z",
        "_{2}"
      ],
      [
        "2",
        "1"
      ],
      [
        "{",
        "0}{"
      ],
      [
        "-",
        "g"
      ],
      [
        "E",
        "^{"
      ],
[...]
